<unk>	0
<|endoftext|>	0

	0
S.H.I.E.L.D.	0
A.I.M.	0
M.O.D.O.K.	0
U.S.	0
Spider-Man	0
Spider-Woman	0
Spider-Girl	0
Spider-Verse	0
Ant-Man	0
She-Hulk	0
Giant-Man	0
Sub-Mariner	0
Two-Gun	0
Mar-Vell	0
Ka-Zar	0
Shang-Chi	0
All-New	0
Earth-616	0
Earth-199999	0
Earth-1610	0
First▁appearance	0
Created▁by	0
Base▁of▁operations	0
Full▁name	0
Identity▁status	0
Also▁known▁as	0
Marital▁status	0
Affiliation	0
Other▁aliases	0
Place▁of▁birth	0
Unusual▁features	0
Relatives	0
Weaknesses	0
Synopsis	0
Trivia	0
<0x00>	0
<0x01>	0
<0x02>	0
<0x03>	0
<0x04>	0
<0x05>	0
<0x06>	0
<0x07>	0
<0x08>	0
<0x09>	0
<0x0A>	0
<0x0B>	0
<0x0C>	0
<0x0D>	0
<0x0E>	0
<0x0F>	0
<0x10>	0
<0x11>	0
<0x12>	0
<0x13>	0
<0x14>	0
<0x15>	0
<0x16>	0
<0x17>	0
<0x18>	0
<0x19>	0
<0x1A>	0
<0x1B>	0
<0x1C>	0
<0x1D>	0
<0x1E>	0
<0x1F>	0
<0x20>	0
<0x21>	0
<0x22>	0
<0x23>	0
<0x24>	0
<0x25>	0
<0x26>	0
<0x27>	0
<0x28>	0
<0x29>	0
<0x2A>	0
<0x2B>	0
<0x2C>	0
<0x2D>	0
<0x2E>	0
<0x2F>	0
<0x30>	0
<0x31>	0
<0x32>	0
<0x33>	0
<0x34>	0
<0x35>	0
<0x36>	0
<0x37>	0
<0x38>	0
<0x39>	0
<0x3A>	0
<0x3B>	0
<0x3C>	0
<0x3D>	0
<0x3E>	0
<0x3F>	0
<0x40>	0
<0x41>	0
<0x42>	0
<0x43>	0
<0x44>	0
<0x45>	0
<0x46>	0
<0x47>	0
<0x48>	0
<0x49>	0
<0x4A>	0
<0x4B>	0
<0x4C>	0
<0x4D>	0
<0x4E>	0
<0x4F>	0
<0x50>	0
<0x51>	0
<0x52>	0
<0x53>	0
<0x54>	0
<0x55>	0
<0x56>	0
<0x57>	0
<0x58>	0
<0x59>	0
<0x5A>	0
<0x5B>	0
<0x5C>	0
<0x5D>	0
<0x5E>	0
<0x5F>	0
<0x60>	0
<0x61>	0
<0x62>	0
<0x63>	0
<0x64>	0
<0x65>	0
<0x66>	0
<0x67>	0
<0x68>	0
<0x69>	0
<0x6A>	0
<0x6B>	0
<0x6C>	0
<0x6D>	0
<0x6E>	0
<0x6F>	0
<0x70>	0
<0x71>	0
<0x72>	0
<0x73>	0
<0x74>	0
<0x75>	0
<0x76>	0
<0x77>	0
<0x78>	0
<0x79>	0
<0x7A>	0
<0x7B>	0
<0x7C>	0
<0x7D>	0
<0x7E>	0
<0x7F>	0
<0x80>	0
<0x81>	0
<0x82>	0
<0x83>	0
<0x84>	0
<0x85>	0
<0x86>	0
<0x87>	0
<0x88>	0
<0x89>	0
<0x8A>	0
<0x8B>	0
<0x8C>	0
<0x8D>	0
<0x8E>	0
<0x8F>	0
<0x90>	0
<0x91>	0
<0x92>	0
<0x93>	0
<0x94>	0
<0x95>	0
<0x96>	0
<0x97>	0
<0x98>	0
<0x99>	0
<0x9A>	0
<0x9B>	0
<0x9C>	0
<0x9D>	0
<0x9E>	0
<0x9F>	0
<0xA0>	0
<0xA1>	0
<0xA2>	0
<0xA3>	0
<0xA4>	0
<0xA5>	0
<0xA6>	0
<0xA7>	0
<0xA8>	0
<0xA9>	0
<0xAA>	0
<0xAB>	0
<0xAC>	0
<0xAD>	0
<0xAE>	0
<0xAF>	0
<0xB0>	0
<0xB1>	0
<0xB2>	0
<0xB3>	0
<0xB4>	0
<0xB5>	0
<0xB6>	0
<0xB7>	0
<0xB8>	0
<0xB9>	0
<0xBA>	0
<0xBB>	0
<0xBC>	0
<0xBD>	0
<0xBE>	0
<0xBF>	0
<0xC0>	0
<0xC1>	0
<0xC2>	0
<0xC3>	0
<0xC4>	0
<0xC5>	0
<0xC6>	0
<0xC7>	0
<0xC8>	0
<0xC9>	0
<0xCA>	0
<0xCB>	0
<0xCC>	0
<0xCD>	0
<0xCE>	0
<0xCF>	0
<0xD0>	0
<0xD1>	0
<0xD2>	0
<0xD3>	0
<0xD4>	0
<0xD5>	0
<0xD6>	0
<0xD7>	0
<0xD8>	0
<0xD9>	0
<0xDA>	0
<0xDB>	0
<0xDC>	0
<0xDD>	0
<0xDE>	0
<0xDF>	0
<0xE0>	0
<0xE1>	0
<0xE2>	0
<0xE3>	0
<0xE4>	0
<0xE5>	0
<0xE6>	0
<0xE7>	0
<0xE8>	0
<0xE9>	0
<0xEA>	0
<0xEB>	0
<0xEC>	0
<0xED>	0
<0xEE>	0
<0xEF>	0
<0xF0>	0
<0xF1>	0
<0xF2>	0
<0xF3>	0
<0xF4>	0
<0xF5>	0
<0xF6>	0
<0xF7>	0
<0xF8>	0
<0xF9>	0
<0xFA>	0
<0xFB>	0
<0xFC>	0
<0xFD>	0
<0xFE>	0
<0xFF>	0
▁t	-0
he	-1
▁a	-2
in	-3
er	-4
▁the	-5
on	-6
re	-7
en	-8
at	-9
▁o	-10
▁w	-11
▁s	-12
an	-13
is	-14
or	-15
ed	-16
es	-17
it	-18
▁b	-19
▁c	-20
ar	-21
al	-22
▁an	-23
ing	-24
▁f	-25
▁of	-26
▁to	-27
▁p	-28
▁in	-29
▁and	-30
as	-31
ic	-32
▁h	-33
▁m	-34
ou	-35
▁d	-36
le	-37
ion	-38
ro	-39
il	-40
▁th	-41
el	-42
ent	-43
▁S	-44
▁A	-45
▁T	-46
om	-47
▁M	-48
▁re	-49
ac	-50
ol	-51
im	-52
st	-53
▁C	-54
ec	-55
▁is	-56
▁l	-57
▁e	-58
▁n	-59
et	-60
ow	-61
ut	-62
id	-63
▁g	-64
▁he	-65
ly	-66
ur	-67
ig	-68
▁I	-69
▁B	-70
▁was	-71
us	-72
ot	-73
am	-74
ve	-75
ad	-76
ver	-77
▁H	-78
▁D	-79
ation	-80
▁on	-81
▁by	-82
▁that	-83
ter	-84
un	-85
ir	-86
▁for	-87
▁be	-88
▁1	-89
ul	-90
▁st	-91
ith	-92
▁P	-93
▁W	-94
▁as	-95
ce	-96
▁The	-97
▁F	-98
ay	-99
th	-100
ers	-101
▁wh	-102
▁with	-103
▁R	-104
▁E	-105
▁G	-106
▁(	-107
her	-108
os	-109
ist	-110
em	-111
um	-112
ch	-113
ill	-114
ies	-115
ity	-116
ain	-117
▁or	-118
ct	-119
▁al	-120
▁his	-121
ag	-122
ap	-123
▁con	-124
▁N	-125
od	-126
if	-127
▁J	-128
▁it	-129
▁L	-130
up	-131
ri	-132
ant	-133
and	-134
▁pro	-135
op	-136
▁at	-137
ak	-138
▁y	-139
▁are	-140
ab	-141
▁com	-142
est	-143
ld	-144
se	-145
rom	-146
ess	-147
oun	-148
igh	-149
end	-150
▁r	-151
ate	-152
ory	-153
ore	-154
▁v	-155
▁V	-156
▁ex	-157
▁from	-158
ure	-159
ack	-160
▁de	-161
ect	-162
▁K	-163
iv	-164
ew	-165
qu	-166
oc	-167
▁k	-168
▁2	-169
our	-170
▁ar	-171
art	-172
ell	-173
ip	-174
ort	-175
▁St	-176
▁ch	-177
ight	-178
▁le	-179
▁It	-180
▁un	-181
ave	-182
▁"	-183
ment	-184
ard	-185
▁tr	-186
ud	-187
vel	-188
ive	-189
ear	-190
res	-191
▁sh	-192
iz	-193
gh	-194
hen	-195
▁him	-196
ge	-197
▁O	-198
▁us	-199
all	-200
ub	-201
ast	-202
▁ab	-203
▁not	-204
ich	-205
▁int	-206
av	-207
▁In	-208
ally	-209
▁their	-210
mer	-211
▁sp	-212
▁they	-213
og	-214
▁can	-215
ated	-216
ther	-217
▁se	-218
▁Mar	-219
ould	-220
cc	-221
ost	-222
ans	-223
der	-224
ough	-225
▁her	-226
▁Th	-227
are	-228
act	-229
ine	-230
arth	-231
▁who	-232
ust	-233
ens	-234
▁U	-235
▁have	-236
The	-237
▁but	-238
pp	-239
ome	-240
ber	-241
▁wor	-242
▁pl	-243
▁this	-244
ere	-245
00	-246
out	-247
pt	-248
ok	-249
ide	-250
ous	-251
ial	-252
ind	-253
ie	-254
ff	-255
rit	-256
ire	-257
▁out	-258
▁en	-259
▁has	-260
▁all	-261
age	-262
.;	-263
ong	-264
pl	-265
ound	-266
ions	-267
eal	-268
▁them	-269
▁19	-270
orm	-271
ia	-272
▁which	-273
▁into	-274
▁were	-275
▁man	-276
▁Vol	-277
ical	-278
ke	-279
▁dis	-280
led	-281
ue	-282
ry	-283
ater	-284
▁Ch	-285
uc	-286
▁cont	-287
▁im	-288
per	-289
ven	-290
▁we	-291
ame	-292
▁you	-293
aw	-294
▁res	-295
ood	-296
ale	-297
ult	-298
▁one	-299
uman	-300
fter	-301
▁up	-302
ile	-303
istory	-304
▁j	-305
▁app	-306
▁had	-307
▁Al	-308
ence	-309
one	-310
▁other	-311
ib	-312
ked	-313
ary	-314
own	-315
hed	-316
ob	-317
▁att	-318
ang	-319
▁cl	-320
▁ad	-321
▁su	-322
▁ag	-323
ake	-324
▁He	-325
ime	-326
▁inc	-327
so	-328
ren	-329
ass	-330
ace	-331
meric	-332
ance	-333
igin	-334
reat	-335
▁ne	-336
▁when	-337
▁do	-338
able	-339
ice	-340
▁art	-341
ely	-342
ep	-343
ild	-344
▁Americ	-345
▁An	-346
ru	-347
▁will	-348
ten	-349
▁more	-350
▁origin	-351
ach	-352
ron	-353
▁Y	-354
▁comp	-355
ra	-356
ubl	-357
port	-358
▁Marvel	-359
ath	-360
ents	-361
over	-362
▁gr	-363
ations	-364
ian	-365
fer	-366
▁so	-367
".	-368
St	-369
eality	-370
pec	-371
hn	-372
▁bec	-373
ark	-374
▁Earth	-375
Reality	-376
ual	-377
▁also	-378
aus	-379
hip	-380
ose	-381
ish	-382
ord	-383
ender	-384
urn	-385
ign	-386
ick	-387
▁Un	-388
ase	-389
▁tit	-390
History	-391
▁part	-392
ons	-393
▁sc	-394
▁writ	-395
▁about	-396
▁te	-397
▁kn	-398
ree	-399
man	-400
tain	-401
ts	-402
▁3	-403
▁ro	-404
here	-405
▁she	-406
▁per	-407
▁over	-408
▁Jo	-409
ors	-410
▁been	-411
▁Man	-412
▁pre	-413
ress	-414
▁/	-415
ower	-416
ook	-417
ail	-418
vent	-419
Gender	-420
ike	-421
▁titled	-422
Story	-423
ks	-424
form	-425
wn	-426
ates	-427
▁its	-428
iver	-429
▁would	-430
▁X	-431
rough	-432
old	-433
▁me	-434
arn	-435
oll	-436
▁rec	-437
ite	-438
pecies	-439
▁time	-440
▁tw	-441
ond	-442
ction	-443
ever	-444
▁pe	-445
▁bl	-446
ears	-447
Species	-448
▁sup	-449
ade	-450
▁new	-451
▁your	-452
▁some	-453
ran	-454
ition	-455
ays	-456
▁after	-457
elf	-458
▁Bl	-459
les	-460
ings	-461
▁off	-462
▁inter	-463
very	-464
ious	-465
oss	-466
iss	-467
ces	-468
▁New	-469
att	-470
▁pr	-471
olog	-472
irst	-473
).	-474
▁As	-475
ities	-476
oy	-477
▁than	-478
▁qu	-479
▁publ	-480
▁ser	-481
▁comm	-482
ted	-483
▁hel	-484
uring	-485
ne	-486
▁sy	-487
▁dec	-488
▁stud	-489
▁there	-490
▁written	-491
▁“	-492
oin	-493
ved	-494
amp	-495
▁then	-496
▁act	-497
▁De	-498
ople	-499
ished	-500
ife	-501
▁how	-502
ork	-503
itiz	-504
▁two	-505
▁20	-506
▁Ar	-507
fore	-508
▁inked	-509
▁Male	-510
ics	-511
▁This	-512
▁kill	-513
ret	-514
▁help	-515
oth	-516
itizens	-517
▁American	-518
▁under	-519
▁go	-520
ool	-521
du	-522
lect	-523
▁where	-524
ied	-525
▁only	-526
ject	-527
▁ass	-528
▁first	-529
▁des	-530
▁work	-531
ee	-532
▁back	-533
ict	-534
▁4	-535
▁through	-536
lud	-537
ient	-538
▁Wh	-539
▁fl	-540
▁people	-541
▁acc	-542
ount	-543
▁may	-544
itizenship	-545
ause	-546
▁bet	-547
ccup	-548
gr	-549
owers	-550
son	-551
Citizenship	-552
tern	-553
ited	-554
▁cons	-555
▁no	-556
▁Re	-557
▁use	-558
Earth	-559
▁Com	-560
ility	-561
▁sur	-562
▁No	-563
▁get	-564
▁any	-565
▁being	-566
▁again	-567
ating	-568
ific	-569
▁def	-570
ys	-571
ccupation	-572
▁For	-573
▁find	-574
),	-575
▁used	-576
▁could	-577
ily	-578
▁am	-579
▁if	-580
red	-581
▁Human	-582
als	-583
row	-584
▁ind	-585
▁most	-586
te	-587
▁rel	-588
▁How	-589
Occupation	-590
we	-591
▁what	-592
hes	-593
▁form	-594
ather	-595
ting	-596
ener	-597
▁When	-598
▁these	-599
ner	-600
▁Sh	-601
ased	-602
gan	-603
▁inv	-604
ider	-605
▁John	-606
gers	-607
ful	-608
..	-609
arl	-610
ident	-611
yp	-612
▁5	-613
ants	-614
▁comic	-615
az	-616
▁ph	-617
▁-	-618
▁ret	-619
rol	-620
▁mem	-621
▁includ	-622
▁rem	-623
-1	-624
other	-625
▁imp	-626
ise	-627
ull	-628
ves	-629
ually	-630
▁such	-631
app	-632
In	-633
▁dif	-634
▁ac	-635
ier	-636
eter	-637
▁attack	-638
ible	-639
▁Sp	-640
land	-641
▁child	-642
ft	-643
ody	-644
▁sa	-645
ock	-646
velop	-647
▁em	-648
▁many	-649
orn	-650
ular	-651
▁br	-652
ove	-653
▁before	-654
ric	-655
ced	-656
rib	-657
▁eff	-658
ene	-659
vengers	-660
ative	-661
▁En	-662
▁fe	-663
▁pres	-664
▁char	-665
▁cap	-666
▁sub	-667
▁reg	-668
oup	-669
rop	-670
▁cre	-671
ared	-672
▁col	-673
▁published	-674
ational	-675
ink	-676
▁trans	-677
▁Sc	-678
▁own	-679
▁power	-680
eth	-681
▁call	-682
▁years	-683
▁disc	-684
▁sec	-685
gy	-686
ures	-687
▁need	-688
stem	-689
self	-690
▁York	-691
▁exp	-692
▁200	-693
uch	-694
xt	-695
ters	-696
▁spec	-697
▁Cap	-698
▁Con	-699
ins	-700
▁ob	-701
▁while	-702
ms	-703
▁Avengers	-704
ton	-705
ollow	-706
ug	-707
▁cr	-708
▁real	-709
▁Col	-710
▁develop	-711
▁down	-712
▁expl	-713
▁well	-714
vers	-715
▁They	-716
▁Z	-717
ble	-718
▁our	-719
▁tak	-720
▁bel	-721
▁lead	-722
ik	-723
iet	-724
ars	-725
▁like	-726
▁world	-727
its	-728
ween	-729
▁see	-730
ros	-731
▁ev	-732
▁life	-733
ph	-734
▁prov	-735
▁Ad	-736
▁end	-737
▁found	-738
▁inf	-739
▁sm	-740
ash	-741
lin	-742
▁ent	-743
ax	-744
▁pers	-745
▁plan	-746
ives	-747
▁during	-748
▁between	-749
ris	-750
▁learn	-751
▁loc	-752
▁inst	-753
▁ins	-754
air	-755
ingle	-756
▁make	-757
▁pol	-758
▁bu	-759
duc	-760
ger	-761
ists	-762
▁way	-763
▁just	-764
▁Pro	-765
way	-766
ness	-767
iel	-768
▁6	-769
cy	-770
ince	-771
au	-772
io	-773
▁We	-774
▁differ	-775
ution	-776
▁even	-777
▁conf	-778
ology	-779
▁later	-780
chool	-781
20	-782
Men	-783
▁201	-784
ows	-785
▁Do	-786
▁water	-787
ments	-788
cer	-789
▁body	-790
▁system	-791
▁long	-792
ward	-793
▁At	-794
▁add	-795
ains	-796
get	-797
ty	-798
▁Dr	-799
▁inform	-800
▁rep	-801
▁follow	-802
▁group	-803
echn	-804
▁Sup	-805
ix	-806
▁sim	-807
▁against	-808
==	-809
ov	-810
▁should	-811
▁America	-812
▁take	-813
▁After	-814
▁return	-815
▁However	-816
aving	-817
▁because	-818
uck	-819
ange	-820
acter	-821
ds	-822
▁poss	-823
ulk	-824
▁str	-825
▁Se	-826
▁made	-827
ury	-828
cept	-829
▁fam	-830
arm	-831
ature	-832
▁Black	-833
▁both	-834
Th	-835
▁set	-836
▁es	-837
ivers	-838
ctor	-839
▁hand	-840
▁18	-841
ells	-842
▁dr	-843
▁human	-844
ages	-845
ines	-846
▁Sec	-847
▁Cl	-848
ony	-849
cess	-850
▁ke	-851
▁Le	-852
▁mon	-853
ning	-854
▁high	-855
ues	-856
▁every	-857
▁exper	-858
▁med	-859
▁fight	-860
▁know	-861
▁super	-862
▁num	-863
▁car	-864
▁control	-865
▁sl	-866
ides	-867
▁Ste	-868
▁ext	-869
▁Dual	-870
▁sk	-871
ott	-872
let	-873
▁team	-874
attle	-875
▁those	-876
▁cent	-877
▁dest	-878
til	-879
▁my	-880
▁heal	-881
▁himself	-882
▁lar	-883
▁Kid	-884
▁mut	-885
uss	-886
ah	-887
ll	-888
ience	-889
ized	-890
rap	-891
▁Captain	-892
▁turn	-893
ouse	-894
▁mod	-895
▁–	-896
uth	-897
▁resp	-898
overn	-899
▁War	-900
ism	-901
ize	-902
19	-903
▁same	-904
!".	-905
cent	-906
ural	-907
▁very	-908
ex	-909
▁dist	-910
empt	-911
▁much	-912
▁min	-913
▁each	-914
▁dep	-915
▁Hulk	-916
▁ed	-917
▁gener	-918
▁She	-919
ically	-920
imes	-921
▁fact	-922
sear	-923
bers	-924
▁did	-925
▁vis	-926
▁var	-927
▁said	-928
▁co	-929
▁7	-930
ried	-931
▁does	-932
▁men	-933
aking	-934
▁Iron	-935
▁effect	-936
▁Gr	-937
▁Q	-938
ying	-939
ler	-940
ason	-941
▁resear	-942
▁count	-943
iew	-944
ster	-945
▁using	-946
▁person	-947
gg	-948
▁fun	-949
ma	-950
▁order	-951
ross	-952
▁Super	-953
▁Be	-954
to	-955
▁Ph	-956
▁now	-957
iving	-958
inal	-959
ames	-960
▁gu	-961
cl	-962
▁known	-963
▁caus	-964
ley	-965
▁If	-966
alk	-967
ians	-968
ract	-969
▁contin	-970
▁look	-971
▁sign	-972
ruct	-973
▁right	-974
▁Single	-975
▁techn	-976
▁Mo	-977
▁result	-978
▁che	-979
▁different	-980
ien	-981
▁produ	-982
▁bro	-983
▁Secret	-984
▁prot	-985
▁rest	-986
▁dem	-987
▁poin	-988
▁death	-989
▁incre	-990
ices	-991
sy	-992
▁killed	-993
▁children	-994
human	-995
ases	-996
ired	-997
▁ter	-998
ional	-999
▁Dan	-1000
astic	-1001
▁information	-1002
▁Is	-1003
▁attempt	-1004
▁sever	-1005
▁import	-1006
▁read	-1007
ck	-1008
▁called	-1009
▁health	-1010
▁stop	-1011
▁Her	-1012
cap	-1013
▁Ed	-1014
▁able	-1015
▁partic	-1016
▁character	-1017
▁Jack	-1018
."	-1019
▁Fran	-1020
▁pat	-1021
▁arm	-1022
the	-1023
▁And	-1024
gram	-1025
▁Har	-1026
oot	-1027
▁commun	-1028
aster	-1029
by	-1030
orld	-1031
augh	-1032
▁wom	-1033
ection	-1034
ected	-1035
▁though	-1036
▁Joe	-1037
▁Bro	-1038
▁ref	-1039
▁story	-1040
▁powers	-1041
reen	-1042
ean	-1043
▁day	-1044
▁#	-1045
ially	-1046
ank	-1047
ured	-1048
▁three	-1049
▁ener	-1050
▁iss	-1051
els	-1052
▁bre	-1053
▁8	-1054
▁Br	-1055
aren	-1056
riend	-1057
▁All	-1058
ained	-1059
▁another	-1060
ral	-1061
ided	-1062
▁process	-1063
▁until	-1064
ison	-1065
lex	-1066
▁head	-1067
▁land	-1068
▁school	-1069
yd	-1070
▁cur	-1071
▁gl	-1072
itt	-1073
emale	-1074
▁Bill	-1075
▁10	-1076
▁series	-1077
▁around	-1078
▁Fl	-1079
▁City	-1080
▁belie	-1081
arly	-1082
▁beg	-1083
ilities	-1084
erv	-1085
▁defe	-1086
▁som	-1087
▁197	-1088
▁still	-1089
ately	-1090
ata	-1091
ute	-1092
agn	-1093
osed	-1094
000	-1095
ember	-1096
rist	-1097
▁govern	-1098
▁book	-1099
▁year	-1100
▁arri	-1101
ling	-1102
▁good	-1103
iverse	-1104
▁requ	-1105
com	-1106
vil	-1107
▁start	-1108
▁Ind	-1109
||	-1110
-9	-1111
▁level	-1112
▁small	-1113
ets	-1114
▁typ	-1115
▁pop	-1116
▁along	-1117
read	-1118
▁activ	-1119
▁Lee	-1120
ny	-1121
ublic	-1122
▁home	-1123
min	-1124
ement	-1125
roy	-1126
ane	-1127
-2	-1128
ital	-1129
ead	-1130
▁energy	-1131
aining	-1132
▁hero	-1133
ober	-1134
ived	-1135
▁great	-1136
▁main	-1137
▁including	-1138
▁Tr	-1139
iversity	-1140
▁9	-1141
▁cor	-1142
▁av	-1143
iron	-1144
aj	-1145
sp	-1146
▁test	-1147
▁students	-1148
11	-1149
▁United	-1150
ards	-1151
▁dire	-1152
rie	-1153
▁Dav	-1154
ox	-1155
ont	-1156
▁Ap	-1157
▁op	-1158
▁away	-1159
me	-1160
▁Stan	-1161
▁Ge	-1162
▁soc	-1163
▁war	-1164
An	-1165
▁organ	-1166
ulation	-1167
▁Ex	-1168
▁ident	-1169
▁reve	-1170
ister	-1171
ote	-1172
▁met	-1173
▁old	-1174
▁beh	-1175
▁capt	-1176
▁Wol	-1177
ample	-1178
omb	-1179
ator	-1180
ium	-1181
▁became	-1182
▁Peter	-1183
ina	-1184
aul	-1185
▁Ben	-1186
ission	-1187
.”	-1188
▁On	-1189
▁But	-1190
▁build	-1191
amed	-1192
ision	-1193
antastic	-1194
▁join	-1195
▁proble	-1196
▁el	-1197
▁allow	-1198
▁history	-1199
akes	-1200
▁sol	-1201
▁Four	-1202
▁escap	-1203
atch	-1204
▁near	-1205
▁number	-1206
gth	-1207
ield	-1208
ense	-1209
merly	-1210
▁Ger	-1211
▁199	-1212
▁creat	-1213
ern	-1214
▁event	-1215
10	-1216
▁grow	-1217
▁important	-1218
oung	-1219
▁elect	-1220
co	-1221
iam	-1222
▁left	-1223
▁show	-1224
▁dev	-1225
▁become	-1226
▁battle	-1227
▁want	-1228
▁Am	-1229
▁phys	-1230
ple	-1231
▁last	-1232
Wh	-1233
less	-1234
orth	-1235
ye	-1236
▁eas	-1237
aged	-1238
line	-1239
▁family	-1240
▁sw	-1241
▁There	-1242
▁often	-1243
▁Ag	-1244
ech	-1245
day	-1246
▁present	-1247
▁est	-1248
eed	-1249
ving	-1250
▁food	-1251
▁design	-1252
Powers	-1253
imate	-1254
▁report	-1255
▁without	-1256
fess	-1257
rent	-1258
atter	-1259
▁treat	-1260
ior	-1261
▁less	-1262
▁Gu	-1263
▁Eng	-1264
▁Steve	-1265
iqu	-1266
▁tra	-1267
▁place	-1268
▁const	-1269
▁adv	-1270
▁cour	-1271
▁Ab	-1272
▁sym	-1273
▁pass	-1274
▁Em	-1275
stand	-1276
▁vers	-1277
▁program	-1278
ones	-1279
▁appear	-1280
▁class	-1281
ries	-1282
▁must	-1283
▁Mor	-1284
ability	-1285
ounter	-1286
▁chang	-1287
▁scient	-1288
▁dise	-1289
▁fin	-1290
ym	-1291
▁Or	-1292
▁With	-1293
▁Mut	-1294
outh	-1295
▁free	-1296
▁imm	-1297
▁Car	-1298
▁public	-1299
▁cle	-1300
ently	-1301
▁Gal	-1302
irc	-1303
ified	-1304
▁run	-1305
▁name	-1306
hers	-1307
viron	-1308
▁198	-1309
▁States	-1310
ination	-1311
▁research	-1312
▁God	-1313
▁fre	-1314
▁pur	-1315
▁Tor	-1316
▁play	-1317
oid	-1318
iety	-1319
ats	-1320
▁&	-1321
▁however	-1322
▁Female	-1323
▁discover	-1324
▁father	-1325
▁Sk	-1326
une	-1327
iven	-1328
ued	-1329
▁sent	-1330
aim	-1331
▁several	-1332
▁Thor	-1333
...	-1334
▁support	-1335
▁quest	-1336
:;	-1337
▁study	-1338
ccess	-1339
▁appro	-1340
▁mil	-1341
side	-1342
yn	-1343
▁King	-1344
▁Christ	-1345
▁seem	-1346
▁consider	-1347
▁det	-1348
▁tem	-1349
▁mar	-1350
▁Pl	-1351
▁Bob	-1352
▁Can	-1353
den	-1354
▁oper	-1355
▁think	-1356
▁law	-1357
▁care	-1358
inc	-1359
▁within	-1360
▁opp	-1361
▁aff	-1362
▁Don	-1363
▁state	-1364
12	-1365
uture	-1366
▁put	-1367
.,	-1368
ole	-1369
▁government	-1370
▁cond	-1371
though	-1372
▁Formerly	-1373
aves	-1374
▁stand	-1375
▁Paul	-1376
▁created	-1377
▁occ	-1378
▁Brit	-1379
▁happ	-1380
▁equ	-1381
▁come	-1382
▁large	-1383
▁ris	-1384
▁appears	-1385
▁While	-1386
▁ec	-1387
▁Fantastic	-1388
ened	-1389
▁others	-1390
▁few	-1391
kn	-1392
▁Park	-1393
iation	-1394
▁member	-1395
▁members	-1396
▁light	-1397
br	-1398
▁too	-1399
▁second	-1400
▁Frank	-1401
any	-1402
▁friend	-1403
▁val	-1404
We	-1405
▁destroy	-1406
ended	-1407
range	-1408
▁keep	-1409
ories	-1410
vironment	-1411
ales	-1412
part	-1413
▁point	-1414
▁May	-1415
ization	-1416
onom	-1417
▁leg	-1418
▁ide	-1419
▁data	-1420
▁might	-1421
▁Geor	-1422
ably	-1423
▁common	-1424
▁gen	-1425
irl	-1426
,000	-1427
▁fil	-1428
ird	-1429
▁once	-1430
▁cost	-1431
▁Comm	-1432
acy	-1433
por	-1434
▁took	-1435
ality	-1436
This	-1437
▁mus	-1438
ett	-1439
3.	-1440
▁University	-1441
▁since	-1442
2.	-1443
otes	-1444
ivid	-1445
itions	-1446
▁anim	-1447
▁comb	-1448
▁project	-1449
earch	-1450
raph	-1451
amor	-1452
iod	-1453
▁sit	-1454
ots	-1455
▁next	-1456
▁David	-1457
1.	-1458
▁eng	-1459
▁desc	-1460
enn	-1461
wh	-1462
▁ship	-1463
uthor	-1464
▁Cr	-1465
und	-1466
ention	-1467
▁change	-1468
▁interest	-1469
,"	-1470
anc	-1471
ged	-1472
▁among	-1473
▁15	-1474
▁reveal	-1475
▁having	-1476
▁area	-1477
▁Gre	-1478
▁due	-1479
▁Stark	-1480
▁pos	-1481
ittle	-1482
▁rele	-1483
oney	-1484
▁mind	-1485
▁example	-1486
▁What	-1487
ush	-1488
aced	-1489
▁invest	-1490
ajor	-1491
ental	-1492
▁following	-1493
▁blood	-1494
▁His	-1495
▁rob	-1496
▁Public	-1497
atic	-1498
umm	-1499
ring	-1500
▁ant	-1501
sh	-1502
ploy	-1503
ilar	-1504
▁World	-1505
▁four	-1506
sel	-1507
illion	-1508
urt	-1509
▁El	-1510
RN	-1511
ream	-1512
▁Ne	-1513
▁Res	-1514
ively	-1515
▁came	-1516
▁cer	-1517
▁lim	-1518
aterial	-1519
▁Thom	-1520
ording	-1521
ised	-1522
▁Carl	-1523
osp	-1524
▁bo	-1525
▁Will	-1526
▁Ang	-1527
▁rev	-1528
▁Red	-1529
ann	-1530
lish	-1531
▁past	-1532
▁invol	-1533
▁fall	-1534
▁Superhuman	-1535
▁early	-1536
▁let	-1537
▁par	-1538
▁Tony	-1539
etic	-1540
▁taken	-1541
▁local	-1542
of	-1543
▁city	-1544
▁success	-1545
▁vill	-1546
▁rad	-1547
▁tells	-1548
ential	-1549
▁educ	-1550
▁kid	-1551
▁women	-1552
▁direct	-1553
▁saf	-1554
▁To	-1555
▁Jim	-1556
duced	-1557
▁enough	-1558
Ch	-1559
▁best	-1560
ources	-1561
▁prom	-1562
▁Bar	-1563
ividual	-1564
lt	-1565
▁Kn	-1566
ored	-1567
atural	-1568
rength	-1569
ills	-1570
for	-1571
ung	-1572
oms	-1573
▁Mike	-1574
▁Cent	-1575
▁fore	-1576
iness	-1577
4.	-1578
eck	-1579
▁say	-1580
▁town	-1581
ume	-1582
▁serv	-1583
▁Wolver	-1584
ending	-1585
lic	-1586
aces	-1587
bi	-1588
0.	-1589
▁port	-1590
===	-1591
▁One	-1592
▁Mc	-1593
ula	-1594
▁George	-1595
par	-1596
▁attacked	-1597
▁po	-1598
▁move	-1599
▁never	-1600
▁pot	-1601
▁young	-1602
cle	-1603
inn	-1604
val	-1605
▁Comics	-1606
lo	-1607
ask	-1608
▁pain	-1609
▁'	-1610
▁Im	-1611
▁pract	-1612
▁disease	-1613
ode	-1614
▁future	-1615
▁Qu	-1616
▁air	-1617
▁enc	-1618
be	-1619
▁short	-1620
erc	-1621
ency	-1622
5.	-1623
▁These	-1624
▁17	-1625
▁rece	-1626
ilt	-1627
▁across	-1628
ope	-1629
▁12	-1630
gether	-1631
▁together	-1632
ores	-1633
idence	-1634
▁material	-1635
oes	-1636
itive	-1637
,”	-1638
▁cover	-1639
ends	-1640
▁similar	-1641
ps	-1642
▁16	-1643
aff	-1644
▁surv	-1645
▁individual	-1646
▁prevent	-1647
ological	-1648
▁ele	-1649
▁lab	-1650
▁understand	-1651
13	-1652
▁tele	-1653
ograph	-1654
▁given	-1655
ration	-1656
▁threat	-1657
not	-1658
▁son	-1659
▁fur	-1660
▁Cal	-1661
▁don	-1662
known	-1663
apons	-1664
ert	-1665
▁Pr	-1666
stit	-1667
▁gun	-1668
bs	-1669
amin	-1670
iff	-1671
▁seen	-1672
It	-1673
▁lik	-1674
▁cause	-1675
ront	-1676
);	-1677
yr	-1678
▁environment	-1679
▁development	-1680
▁says	-1681
aun	-1682
ches	-1683
▁top	-1684
▁pri	-1685
vious	-1686
ule	-1687
aper	-1688
▁196	-1689
▁far	-1690
ky	-1691
▁version	-1692
alf	-1693
▁stat	-1694
▁proper	-1695
selves	-1696
ped	-1697
ald	-1698
▁eventually	-1699
ires	-1700
▁Russ	-1701
amm	-1702
▁making	-1703
rew	-1704
▁began	-1705
▁del	-1706
ething	-1707
▁cult	-1708
▁fire	-1709
▁named	-1710
aps	-1711
anger	-1712
▁heroes	-1713
▁lo	-1714
▁fail	-1715
ogn	-1716
ands	-1717
▁bas	-1718
ances	-1719
▁country	-1720
▁sold	-1721
▁based	-1722
▁percent	-1723
ource	-1724
▁Rober	-1725
▁went	-1726
▁meet	-1727
▁becom	-1728
▁going	-1729
▁current	-1730
▁major	-1731
olution	-1732
▁di	-1733
ivil	-1734
▁means	-1735
▁open	-1736
▁Namor	-1737
▁dead	-1738
nal	-1739
▁offic	-1740
▁tri	-1741
▁Rom	-1742
ects	-1743
▁Arm	-1744
▁working	-1745
eb	-1746
▁times	-1747
▁better	-1748
▁space	-1749
▁possible	-1750
▁things	-1751
6.	-1752
▁Dec	-1753
▁object	-1754
ption	-1755
▁night	-1756
▁include	-1757
▁bus	-1758
elling	-1759
▁Doctor	-1760
▁possess	-1761
ways	-1762
▁mark	-1763
1,	-1764
▁side	-1765
ethod	-1766
▁Ven	-1767
▁upon	-1768
ealth	-1769
oon	-1770
▁bi	-1771
▁perform	-1772
angu	-1773
urer	-1774
emy	-1775
iter	-1776
▁ill	-1777
▁issue	-1778
-8	-1779
▁particular	-1780
gard	-1781
ither	-1782
▁infl	-1783
▁—	-1784
ray	-1785
aut	-1786
▁You	-1787
▁product	-1788
▁author	-1789
▁house	-1790
▁occur	-1791
hem	-1792
▁break	-1793
▁takes	-1794
ences	-1795
▁give	-1796
▁various	-1797
▁deter	-1798
iding	-1799
▁begin	-1800
▁er	-1801
▁something	-1802
ges	-1803
▁list	-1804
▁little	-1805
ched	-1806
▁Ult	-1807
▁finds	-1808
1)	-1809
ggest	-1810
▁suggest	-1811
▁ability	-1812
▁period	-1813
itor	-1814
umans	-1815
ipment	-1816
▁claim	-1817
▁Te	-1818
ino	-1819
ply	-1820
18	-1821
▁Char	-1822
▁dri	-1823
ael	-1824
▁original	-1825
ki	-1826
▁bene	-1827
ops	-1828
▁vol	-1829
▁species	-1830
TRN	-1831
ney	-1832
▁econom	-1833
▁Doom	-1834
▁Med	-1835
▁dam	-1836
▁uses	-1837
ingly	-1838
▁low	-1839
itch	-1840
▁addition	-1841
▁soon	-1842
face	-1843
icle	-1844
urop	-1845
▁cells	-1846
▁fr	-1847
▁led	-1848
iting	-1849
sych	-1850
▁Rich	-1851
▁social	-1852
ought	-1853
▁month	-1854
▁prison	-1855
edi	-1856
▁case	-1857
▁avail	-1858
vey	-1859
▁norm	-1860
▁[	-1861
ruction	-1862
fic	-1863
eared	-1864
ortun	-1865
ering	-1866
resent	-1867
▁create	-1868
▁post	-1869
like	-1870
▁195	-1871
▁tre	-1872
▁Mich	-1873
▁press	-1874
rought	-1875
|-	-1876
most	-1877
▁whe	-1878
▁provide	-1879
thing	-1880
▁Advent	-1881
ey	-1882
▁force	-1883
▁offer	-1884
ror	-1885
▁non	-1886
▁here	-1887
▁themselves	-1888
agon	-1889
rel	-1890
▁black	-1891
▁escape	-1892
▁age	-1893
Notes	-1894
aughter	-1895
▁circ	-1896
▁hard	-1897
▁exist	-1898
▁heart	-1899
ered	-1900
ware	-1901
▁impro	-1902
go	-1903
▁travel	-1904
tt	-1905
▁plant	-1906
▁mult	-1907
used	-1908
▁technology	-1909
▁feel	-1910
▁refer	-1911
▁z	-1912
▁secret	-1913
ined	-1914
fessor	-1915
ww	-1916
▁makes	-1917
▁risk	-1918
▁quick	-1919
▁counter	-1920
For	-1921
▁paren	-1922
▁mean	-1923
▁conv	-1924
use	-1925
▁special	-1926
▁mass	-1927
17	-1928
▁employ	-1929
▁During	-1930
▁(19	-1931
▁wee	-1932
▁view	-1933
▁days	-1934
▁Ann	-1935
▁conn	-1936
▁polit	-1937
ledge	-1938
af	-1939
▁Cor	-1940
▁‘	-1941
▁My	-1942
▁goes	-1943
▁certain	-1944
isher	-1945
▁et	-1946
iant	-1947
iminal	-1948
sw	-1949
de	-1950
30	-1951
▁Angel	-1952
14	-1953
wards	-1954
▁meas	-1955
▁method	-1956
ief	-1957
str	-1958
▁entire	-1959
15	-1960
▁Death	-1961
▁physical	-1962
▁US	-1963
▁ri	-1964
▁spe	-1965
▁comes	-1966
▁fac	-1967
▁repl	-1968
▁Af	-1969
▁strong	-1970
▁access	-1971
int	-1972
osm	-1973
▁anal	-1974
▁full	-1975
▁hig	-1976
host	-1977
▁Sim	-1978
rup	-1979
▁Strange	-1980
▁Tom	-1981
▁trad	-1982
▁cell	-1983
▁Mon	-1984
bor	-1985
▁William	-1986
As	-1987
duct	-1988
▁Mark	-1989
▁protect	-1990
",	-1991
▁German	-1992
▁National	-1993
▁14	-1994
▁abs	-1995
uly	-1996
▁obs	-1997
▁James	-1998
▁defeated	-1999
▁Parker	-2000
▁cal	-2001
▁Dead	-2002
▁century	-2003
▁treatment	-2004
16	-2005
itary	-2006
Mar	-2007
▁Europ	-2008
anced	-2009
▁transform	-2010
-6	-2011
▁Sm	-2012
ateg	-2013
▁suff	-2014
▁reality	-2015
▁building	-2016
▁struct	-2017
▁investig	-2018
▁II	-2019
allen	-2020
▁mutant	-2021
▁money	-2022
▁Gl	-2023
▁mag	-2024
▁respons	-2025
▁natural	-2026
▁instead	-2027
istor	-2028
▁Robert	-2029
ients	-2030
ius	-2031
▁brain	-2032
▁prop	-2033
--	-2034
▁vir	-2035
rug	-2036
▁cho	-2037
apan	-2038
▁changes	-2039
▁Dick	-2040
▁Oct	-2041
▁try	-2042
▁living	-2043
7.	-2044
ument	-2045
alt	-2046
▁bir	-2047
ellow	-2048
iated	-2049
▁foc	-2050
▁available	-2051
▁further	-2052
▁specific	-2053
▁mother	-2054
▁why	-2055
▁hold	-2056
▁comput	-2057
▁Ac	-2058
aid	-2059
▁leader	-2060
▁Ban	-2061
▁learning	-2062
▁init	-2063
hood	-2064
▁self	-2065
▁estab	-2066
▁revealed	-2067
▁inj	-2068
▁likely	-2069
ades	-2070
▁areas	-2071
▁Ass	-2072
▁taking	-2073
▁comple	-2074
3,	-2075
iers	-2076
▁Ter	-2077
▁$	-2078
▁Co	-2079
ules	-2080
▁cy	-2081
▁ann	-2082
▁bring	-2083
atory	-2084
▁Mutant	-2085
8.	-2086
eral	-2087
aur	-2088
▁fle	-2089
▁langu	-2090
▁relations	-2091
gen	-2092
▁.	-2093
▁Scott	-2094
ounds	-2095
ecess	-2096
-7	-2097
▁Asgard	-2098
▁levels	-2099
unt	-2100
pool	-2101
▁assoc	-2102
▁North	-2103
▁intro	-2104
▁leave	-2105
▁really	-2106
When	-2107
▁Michael	-2108
avier	-2109
▁forces	-2110
▁Japan	-2111
rian	-2112
▁mot	-2113
▁problem	-2114
▁live	-2115
iced	-2116
urg	-2117
▁--	-2118
izing	-2119
▁Rider	-2120
▁police	-2121
aring	-2122
ready	-2123
▁describ	-2124
▁Rob	-2125
ude	-2126
▁problems	-2127
isc	-2128
ique	-2129
-5	-2130
▁line	-2131
▁194	-2132
▁above	-2133
ression	-2134
▁mid	-2135
▁least	-2136
▁Jan	-2137
▁ve	-2138
▁face	-2139
mit	-2140
imin	-2141
▁behind	-2142
▁Dark	-2143
▁Torch	-2144
▁easily	-2145
▁draw	-2146
iber	-2147
ours	-2148
▁Roy	-2149
▁actually	-2150
▁gre	-2151
▁discuss	-2152
▁Rog	-2153
imens	-2154
▁Gener	-2155
▁That	-2156
▁|	-2157
▁brother	-2158
▁signific	-2159
▁told	-2160
▁role	-2161
▁Afric	-2162
▁planet	-2163
▁million	-2164
▁base	-2165
▁population	-2166
▁inside	-2167
iles	-2168
▁stri	-2169
▁aut	-2170
▁(2	-2171
▁Pres	-2172
▁track	-2173
omm	-2174
▁brought	-2175
uation	-2176
ned	-2177
ril	-2178
dom	-2179
▁tried	-2180
▁caused	-2181
▁colle	-2182
-3	-2183
ai	-2184
work	-2185
▁always	-2186
▁fig	-2187
▁host	-2188
▁words	-2189
sequ	-2190
utes	-2191
▁record	-2192
▁appeared	-2193
▁Bet	-2194
ators	-2195
usp	-2196
berg	-2197
rest	-2198
▁demon	-2199
▁experim	-2200
▁crit	-2201
▁teac	-2202
▁already	-2203
▁course	-2204
▁assist	-2205
9.	-2206
ese	-2207
urder	-2208
▁pay	-2209
evil	-2210
▁collect	-2211
▁Wolverine	-2212
▁British	-2213
▁bar	-2214
▁effort	-2215
▁Aust	-2216
oph	-2217
uel	-2218
▁Cy	-2219
▁skin	-2220
▁developed	-2221
▁prim	-2222
▁former	-2223
▁altern	-2224
▁vo	-2225
▁wind	-2226
▁five	-2227
ico	-2228
▁temper	-2229
▁captured	-2230
head	-2231
▁Thomas	-2232
▁resc	-2233
ders	-2234
▁red	-2235
What	-2236
apped	-2237
urity	-2238
▁died	-2239
▁hor	-2240
▁knowledge	-2241
izes	-2242
▁itself	-2243
▁Pe	-2244
▁indust	-2245
▁30	-2246
umb	-2247
pite	-2248
5,	-2249
▁strength	-2250
▁question	-2251
▁subject	-2252
▁hands	-2253
cil	-2254
▁chem	-2255
▁sn	-2256
▁cut	-2257
▁agre	-2258
ify	-2259
▁previous	-2260
ocal	-2261
▁works	-2262
▁true	-2263
▁community	-2264
aven	-2265
▁Sam	-2266
▁Per	-2267
▁Guard	-2268
ashing	-2269
rown	-2270
udden	-2271
▁Bus	-2272
gu	-2273
▁miss	-2274
▁Sw	-2275
ication	-2276
▁Banner	-2277
▁represent	-2278
▁returned	-2279
2,	-2280
urch	-2281
lying	-2282
▁Stud	-2283
▁phot	-2284
king	-2285
▁Des	-2286
▁rather	-2287
Al	-2288
▁influ	-2289
Bl	-2290
▁cancer	-2291
actus	-2292
▁So	-2293
▁almost	-2294
▁Kir	-2295
▁surface	-2296
▁cannot	-2297
▁normal	-2298
iec	-2299
▁business	-2300
▁turned	-2301
▁killing	-2302
▁woman	-2303
▁deal	-2304
▁room	-2305
cient	-2306
estern	-2307
▁reason	-2308
Ab	-2309
chers	-2310
▁thought	-2311
oul	-2312
▁Sch	-2313
▁Haw	-2314
▁camp	-2315
▁Soc	-2316
▁Cont	-2317
▁effects	-2318
ruce	-2319
pro	-2320
chie	-2321
▁Ay	-2322
▁Charles	-2323
▁usually	-2324
▁either	-2325
▁Hen	-2326
hing	-2327
▁universe	-2328
▁sun	-2329
▁mach	-2330
▁function	-2331
▁half	-2332
▁Inf	-2333
▁Intern	-2334
▁ground	-2335
▁education	-2336
con	-2337
▁Squ	-2338
▁Universe	-2339
pecially	-2340
▁trying	-2341
iol	-2342
▁ens	-2343
▁issues	-2344
▁English	-2345
▁general	-2346
▁kind	-2347
▁impact	-2348
uary	-2349
emb	-2350
oved	-2351
usion	-2352
▁Dep	-2353
▁job	-2354
▁Pat	-2355
▁recogn	-2356
ening	-2357
aching	-2358
▁particip	-2359
ada	-2360
▁single	-2361
▁contact	-2362
▁tries	-2363
▁gang	-2364
▁leaves	-2365
ceed	-2366
▁below	-2367
▁evidence	-2368
▁done	-2369
istic	-2370
▁Some	-2371
▁concer	-2372
born	-2373
▁shoot	-2374
▁type	-2375
▁Xavier	-2376
▁Atl	-2377
▁lost	-2378
▁ren	-2379
▁By	-2380
▁Gene	-2381
▁sens	-2382
ift	-2383
leep	-2384
▁drug	-2385
▁increase	-2386
▁ever	-2387
put	-2388
▁ess	-2389
▁quickly	-2390
▁Adventurer	-2391
▁abilities	-2392
▁accept	-2393
="	-2394
▁size	-2395
▁Pet	-2396
aredevil	-2397
▁Win	-2398
ander	-2399
▁Fr	-2400
ached	-2401
▁field	-2402
▁relationship	-2403
ae	-2404
law	-2405
bo	-2406
rect	-2407
▁necess	-2408
▁needs	-2409
▁outside	-2410
ids	-2411
▁film	-2412
ging	-2413
▁systems	-2414
bed	-2415
▁Power	-2416
ites	-2417
▁big	-2418
▁Ever	-2419
▁diffic	-2420
ressed	-2421
▁unknown	-2422
▁gets	-2423
ugust	-2424
oses	-2425
If	-2426
▁ep	-2427
imately	-2428
▁decided	-2429
▁Lar	-2430
▁Naz	-2431
dle	-2432
▁destroyed	-2433
▁div	-2434
ump	-2435
ights	-2436
▁13	-2437
ocked	-2438
▁parents	-2439
▁white	-2440
-4	-2441
duce	-2442
▁experience	-2443
▁ways	-2444
NA	-2445
irm	-2446
ita	-2447
sc	-2448
obal	-2449
▁conditions	-2450
▁Art	-2451
▁difficult	-2452
▁today	-2453
99	-2454
pire	-2455
▁step	-2456
ibility	-2457
▁benef	-2458
▁significant	-2459
▁won	-2460
off	-2461
▁device	-2462
▁discovered	-2463
▁whole	-2464
▁got	-2465
▁girl	-2466
▁site	-2467
▁Alex	-2468
▁Er	-2469
▁whether	-2470
ucky	-2471
▁Mr	-2472
▁forced	-2473
▁South	-2474
▁psych	-2475
artment	-2476
eely	-2477
▁Val	-2478
▁School	-2479
▁Ser	-2480
hero	-2481
aught	-2482
▁Kr	-2483
hel	-2484
arr	-2485
▁god	-2486
▁events	-2487
▁results	-2488
yes	-2489
ety	-2490
▁challen	-2491
▁cases	-2492
▁mission	-2493
▁boy	-2494
▁student	-2495
ilver	-2496
▁mer	-2497
▁military	-2498
▁Mag	-2499
▁exc	-2500
▁net	-2501
▁save	-2502
▁Pol	-2503
▁coll	-2504
▁counterpart	-2505
asing	-2506
erson	-2507
▁answ	-2508
raft	-2509
▁dom	-2510
▁game	-2511
▁late	-2512
arent	-2513
▁vict	-2514
▁separ	-2515
ara	-2516
ishing	-2517
▁language	-2518
▁Hell	-2519
aker	-2520
▁loss	-2521
▁talk	-2522
▁behav	-2523
under	-2524
▁Bruce	-2525
▁murder	-2526
iple	-2527
rief	-2528
▁leaving	-2529
▁Maneely	-2530
▁higher	-2531
▁Mad	-2532
ana	-2533
▁lower	-2534
▁ra	-2535
▁gas	-2536
▁Sl	-2537
apon	-2538
▁word	-2539
▁neg	-2540
illed	-2541
▁source	-2542
▁idea	-2543
▁prob	-2544
▁needed	-2545
osmic	-2546
▁Green	-2547
▁search	-2548
▁confron	-2549
4,	-2550
▁Rep	-2551
▁wife	-2552
▁training	-2553
▁activities	-2554
atures	-2555
▁powerful	-2556
▁Magn	-2557
uses	-2558
▁cat	-2559
▁science	-2560
▁especially	-2561
2)	-2562
asc	-2563
▁Dou	-2564
▁Howard	-2565
▁June	-2566
▁Act	-2567
▁deb	-2568
azing	-2569
ica	-2570
▁states	-2571
▁tar	-2572
amb	-2573
▁considered	-2574
rem	-2575
uted	-2576
while	-2577
▁hom	-2578
▁begins	-2579
▁shows	-2580
▁Hel	-2581
oned	-2582
▁causing	-2583
▁Matt	-2584
view	-2585
yl	-2586
ival	-2587
can	-2588
▁green	-2589
50	-2590
▁March	-2591
path	-2592
etimes	-2593
pe	-2594
There	-2595
aging	-2596
fully	-2597
▁visit	-2598
▁countries	-2599
▁Wil	-2600
▁joined	-2601
▁gave	-2602
▁applic	-2603
▁intern	-2604
ault	-2605
▁whose	-2606
agement	-2607
biote	-2608
▁friends	-2609
▁groups	-2610
quipment	-2611
din	-2612
▁Part	-2613
aily	-2614
mber	-2615
elt	-2616
▁identity	-2617
▁Tw	-2618
▁nature	-2619
ples	-2620
ective	-2621
▁political	-2622
ko	-2623
▁cop	-2624
uff	-2625
▁Sal	-2626
▁defeat	-2627
reg	-2628
ideo	-2629
▁medical	-2630
▁potential	-2631
▁exam	-2632
▁studies	-2633
▁shown	-2634
yle	-2635
▁Kurt	-2636
▁plants	-2637
▁love	-2638
9,	-2639
▁daughter	-2640
▁Gold	-2641
▁range	-2642
▁attacks	-2643
astle	-2644
▁engine	-2645
▁army	-2646
▁Sur	-2647
▁six	-2648
cious	-2649
▁Mary	-2650
▁company	-2651
6,	-2652
oo	-2653
▁longer	-2654
icro	-2655
▁decides	-2656
asion	-2657
▁polic	-2658
▁action	-2659
▁consum	-2660
▁Daredevil	-2661
ama	-2662
▁built	-2663
reme	-2664
ocks	-2665
echan	-2666
ountain	-2667
▁rights	-2668
che	-2669
▁yet	-2670
▁model	-2671
▁ur	-2672
▁Thing	-2673
▁earth	-2674
7,	-2675
▁warn	-2676
▁modern	-2677
ysis	-2678
▁Reed	-2679
▁Galactus	-2680
uddenly	-2681
▁held	-2682
▁frequ	-2683
ptember	-2684
lement	-2685
▁armor	-2686
abit	-2687
Equipment	-2688
▁Venom	-2689
eff	-2690
hib	-2691
▁Instit	-2692
▁close	-2693
▁looking	-2694
▁Deadpool	-2695
▁famil	-2696
▁State	-2697
▁growth	-2698
bol	-2699
▁believe	-2700
ape	-2701
▁activity	-2702
▁fighting	-2703
▁July	-2704
▁managed	-2705
▁indic	-2706
▁text	-2707
▁detail	-2708
irit	-2709
▁tell	-2710
ables	-2711
ournal	-2712
arily	-2713
▁recover	-2714
▁susp	-2715
▁Jew	-2716
▁Colt	-2717
atives	-2718
▁Ayers	-2719
▁amount	-2720
▁deg	-2721
▁react	-2722
▁started	-2723
▁West	-2724
▁becomes	-2725
▁clear	-2726
On	-2727
▁wall	-2728
▁mat	-2729
▁Spider	-2730
▁getting	-2731
▁animals	-2732
▁target	-2733
▁August	-2734
oke	-2735
▁syn	-2736
▁Ke	-2737
▁Sun	-2738
▁island	-2739
▁April	-2740
ery	-2741
ducation	-2742
▁dig	-2743
▁Moon	-2744
8,	-2745
▁Def	-2746
▁opt	-2747
▁asked	-2748
imm	-2749
obile	-2750
▁Fred	-2751
▁emer	-2752
▁books	-2753
band	-2754
▁key	-2755
idge	-2756
va	-2757
▁oil	-2758
iction	-2759
▁national	-2760
▁humans	-2761
ouncil	-2762
▁Harry	-2763
▁suit	-2764
▁squ	-2765
//	-2766
▁media	-2767
▁speed	-2768
▁Atlant	-2769
▁Bas	-2770
▁Kirby	-2771
iforn	-2772
▁Mart	-2773
power	-2774
▁Fury	-2775
▁recent	-2776
▁involved	-2777
▁patients	-2778
▁win	-2779
▁months	-2780
▁tot	-2781
▁civil	-2782
▁Although	-2783
▁parts	-2784
ze	-2785
utions	-2786
▁sure	-2787
ification	-2788
▁causes	-2789
▁Force	-2790
▁tradition	-2791
ucle	-2792
▁path	-2793
ga	-2794
ptoms	-2795
▁lives	-2796
▁continued	-2797
▁Ir	-2798
▁require	-2799
▁term	-2800
▁purp	-2801
▁computer	-2802
▁soldiers	-2803
▁wa	-2804
▁prep	-2805
▁Que	-2806
icient	-2807
▁paper	-2808
▁maintain	-2809
How	-2810
ham	-2811
▁San	-2812
rench	-2813
iance	-2814
▁Ghost	-2815
▁criminal	-2816
23	-2817
rost	-2818
▁Later	-2819
▁fat	-2820
▁shot	-2821
▁sense	-2822
ifornia	-2823
▁Dem	-2824
ising	-2825
▁priv	-2826
://	-2827
▁helped	-2828
▁questions	-2829
▁Hyd	-2830
org	-2831
▁explains	-2832
ibr	-2833
▁mom	-2834
▁Bu	-2835
▁sett	-2836
Marvel	-2837
na	-2838
▁Di	-2839
acters	-2840
order	-2841
eph	-2842
▁Gen	-2843
▁resources	-2844
ulture	-2845
▁scientists	-2846
▁according	-2847
▁doc	-2848
ES	-2849
▁article	-2850
▁Syd	-2851
▁stay	-2852
▁viol	-2853
oe	-2854
===;	-2855
ellig	-2856
▁increased	-2857
▁Doug	-2858
▁Colan	-2859
▁doing	-2860
▁opportun	-2861
vention	-2862
▁plans	-2863
▁personal	-2864
▁Mas	-2865
▁histor	-2866
▁Everett	-2867
urs	-2868
osis	-2869
▁mess	-2870
▁contrib	-2871
▁continue	-2872
▁transport	-2873
▁Tex	-2874
▁Hart	-2875
▁appearance	-2876
▁resist	-2877
▁condition	-2878
ises	-2879
▁wanted	-2880
ips	-2881
▁Sy	-2882
▁matter	-2883
▁rock	-2884
▁tool	-2885
▁week	-2886
fact	-2887
ele	-2888
oom	-2889
epend	-2890
▁achie	-2891
▁pred	-2892
▁ver	-2893
▁doesn	-2894
inks	-2895
eller	-2896
▁ran	-2897
duction	-2898
▁concept	-2899
▁summ	-2900
▁relig	-2901
kin	-2902
ste	-2903
▁burn	-2904
▁throughout	-2905
gress	-2906
▁California	-2907
▁mov	-2908
▁skills	-2909
▁returns	-2910
Ar	-2911
cing	-2912
aches	-2913
▁Count	-2914
▁Professor	-2915
▁adult	-2916
▁worked	-2917
5)	-2918
▁hours	-2919
osing	-2920
▁High	-2921
ospital	-2922
▁Chris	-2923
▁regard	-2924
▁arrived	-2925
ector	-2926
▁agent	-2927
apt	-2928
▁region	-2929
ications	-2930
ypse	-2931
▁hun	-2932
▁types	-2933
▁piec	-2934
ocalypse	-2935
▁freed	-2936
▁Fort	-2937
▁rate	-2938
▁fund	-2939
gest	-2940
▁Law	-2941
▁Pun	-2942
▁king	-2943
▁ut	-2944
▁arg	-2945
▁Comp	-2946
wen	-2947
▁designed	-2948
▁flu	-2949
ebru	-2950
▁ult	-2951
▁surp	-2952
ederal	-2953
ebruary	-2954
ccording	-2955
▁attention	-2956
omp	-2957
▁chemical	-2958
▁final	-2959
Weapons	-2960
▁December	-2961
▁production	-2962
oor	-2963
▁Britain	-2964
aly	-2965
▁doctor	-2966
▁11	-2967
ensive	-2968
▁January	-2969
itude	-2970
After	-2971
Un	-2972
▁Health	-2973
▁lay	-2974
▁researchers	-2975
eanwhile	-2976
▁saw	-2977
▁Island	-2978
▁improve	-2979
▁Nove	-2980
▁immedi	-2981
▁batt	-2982
olt	-2983
▁50	-2984
erve	-2985
▁although	-2986
▁everyone	-2987
verage	-2988
▁November	-2989
▁provided	-2990
▁attempted	-2991
ections	-2992
▁Adam	-2993
rull	-2994
▁pressure	-2995
ady	-2996
▁birth	-2997
▁bur	-2998
▁complex	-2999
▁September	-3000
▁Os	-3001
asts	-3002
▁sex	-3003
▁herself	-3004
cean	-3005
▁avoid	-3006
bing	-3007
▁forms	-3008
22	-3009
ka	-3010
rial	-3011
.)	-3012
8)	-3013
eto	-3014
▁lot	-3015
▁Star	-3016
▁focus	-3017
▁Lou	-3018
▁dark	-3019
ims	-3020
▁someone	-3021
▁October	-3022
▁required	-3023
6)	-3024
▁Ber	-3025
▁Sol	-3026
▁steal	-3027
▁deep	-3028
▁gives	-3029
▁attempts	-3030
▁experien	-3031
▁vamp	-3032
▁Harvey	-3033
▁office	-3034
▁White	-3035
▁leading	-3036
▁front	-3037
▁Shores	-3038
▁position	-3039
▁hop	-3040
▁liter	-3041
▁brief	-3042
▁Flight	-3043
▁popular	-3044
▁apparent	-3045
▁fought	-3046
▁bul	-3047
ground	-3048
ulate	-3049
▁simply	-3050
▁damage	-3051
keye	-3052
▁released	-3053
▁structure	-3054
▁dece	-3055
▁House	-3056
▁dog	-3057
uke	-3058
▁value	-3059
▁thus	-3060
ih	-3061
▁safety	-3062
ouble	-3063
▁sav	-3064
▁Ross	-3065
ervation	-3066
iller	-3067
▁lack	-3068
ript	-3069
▁wat	-3070
itness	-3071
▁provides	-3072
▁Inc	-3073
▁25	-3074
icles	-3075
▁safe	-3076
ivity	-3077
▁Season	-3078
▁finally	-3079
▁didn	-3080
▁Knight	-3081
▁related	-3082
▁General	-3083
inity	-3084
▁thing	-3085
▁products	-3086
▁President	-3087
▁sleep	-3088
▁symptoms	-3089
▁Department	-3090
▁aid	-3091
▁location	-3092
ping	-3093
▁ago	-3094
mon	-3095
▁Institute	-3096
▁100	-3097
▁earl	-3098
▁Colle	-3099
aries	-3100
▁Night	-3101
▁cross	-3102
▁allowed	-3103
▁cust	-3104
▁farm	-3105
▁Bucky	-3106
▁Jones	-3107
▁included	-3108
SA	-3109
▁laun	-3110
bon	-3111
oud	-3112
het	-3113
▁Busce	-3114
ttp	-3115
▁Ant	-3116
opher	-3117
▁Buscema	-3118
▁climate	-3119
abor	-3120
▁global	-3121
odes	-3122
yond	-3123
▁followed	-3124
▁enh	-3125
ashington	-3126
ER	-3127
▁Me	-3128
▁Ret	-3129
acula	-3130
world	-3131
▁trib	-3132
▁Henry	-3133
▁contain	-3134
▁greater	-3135
▁sac	-3136
▁danger	-3137
▁superhero	-3138
Tr	-3139
▁characters	-3140
▁feed	-3141
▁heat	-3142
▁received	-3143
▁economic	-3144
▁third	-3145
▁page	-3146
▁pict	-3147
lished	-3148
▁sat	-3149
anda	-3150
▁ple	-3151
▁Just	-3152
cis	-3153
▁sea	-3154
▁command	-3155
▁eye	-3156
icine	-3157
▁Min	-3158
▁disp	-3159
▁Apocalypse	-3160
back	-3161
▁Mac	-3162
vin	-3163
▁associated	-3164
4)	-3165
ounded	-3166
▁arch	-3167
enders	-3168
▁Than	-3169
▁Meanwhile	-3170
imated	-3171
▁practice	-3172
axy	-3173
▁bank	-3174
▁More	-3175
▁feet	-3176
▁learned	-3177
▁Reg	-3178
arian	-3179
▁market	-3180
▁reported	-3181
uge	-3182
▁compl	-3183
▁Empire	-3184
▁Inv	-3185
▁Alan	-3186
ership	-3187
my	-3188
▁Austral	-3189
rig	-3190
uries	-3191
earing	-3192
▁weight	-3193
▁born	-3194
raz	-3195
▁situation	-3196
▁prote	-3197
To	-3198
▁mechan	-3199
▁Day	-3200
osure	-3201
▁Great	-3202
▁color	-3203
▁allows	-3204
ulations	-3205
▁combat	-3206
▁Fre	-3207
▁Not	-3208
▁pair	-3209
▁bomb	-3210
hold	-3211
oblin	-3212
40	-3213
▁Sever	-3214
▁profess	-3215
▁interact	-3216
▁Punisher	-3217
oki	-3218
uit	-3219
▁1,	-3220
aph	-3221
light	-3222
▁scene	-3223
▁Mod	-3224
▁mutants	-3225
▁Jon	-3226
▁manages	-3227
▁harm	-3228
▁Cat	-3229
▁necessary	-3230
▁sometimes	-3231
▁reb	-3232
▁(20	-3233
▁service	-3234
▁Leg	-3235
▁Dave	-3236
▁produce	-3237
▁complete	-3238
▁February	-3239
ken	-3240
ography	-3241
▁simple	-3242
▁Washington	-3243
▁capture	-3244
gin	-3245
reet	-3246
▁reduce	-3247
▁scientist	-3248
▁nothing	-3249
▁seems	-3250
▁nut	-3251
▁diet	-3252
▁Ev	-3253
▁enter	-3254
3)	-3255
men	-3256
▁complet	-3257
ache	-3258
venge	-3259
ference	-3260
▁French	-3261
▁recomm	-3262
▁responsible	-3263
▁ge	-3264
▁Acad	-3265
▁Morris	-3266
uk	-3267
ito	-3268
▁turns	-3269
▁spread	-3270
▁ful	-3271
avy	-3272
▁Ron	-3273
▁ang	-3274
raw	-3275
▁Par	-3276
ulated	-3277
Abilities	-3278
One	-3279
unn	-3280
▁weapons	-3281
▁Brian	-3282
▁carry	-3283
▁England	-3284
▁See	-3285
ha	-3286
▁wr	-3287
▁materials	-3288
▁else	-3289
▁eyes	-3290
▁Mid	-3291
▁Dracula	-3292
▁ast	-3293
▁nation	-3294
▁except	-3295
▁limited	-3296
▁Norm	-3297
Man	-3298
▁alone	-3299
▁displ	-3300
▁Europe	-3301
▁remains	-3302
hol	-3303
▁Center	-3304
erved	-3305
▁Bell	-3306
▁Phil	-3307
▁individuals	-3308
cher	-3309
▁Loki	-3310
▁regular	-3311
▁Heck	-3312
▁arrives	-3313
▁news	-3314
▁pattern	-3315
ancy	-3316
▁Rein	-3317
▁electric	-3318
▁Storm	-3319
▁therap	-3320
▁established	-3321
icks	-3322
▁Web	-3323
▁whom	-3324
▁princ	-3325
▁terms	-3326
ss	-3327
oub	-3328
▁foot	-3329
▁gold	-3330
onse	-3331
rict	-3332
▁machine	-3333
Be	-3334
pson	-3335
▁tree	-3336
▁Smith	-3337
▁music	-3338
▁robot	-3339
▁temperature	-3340
itation	-3341
▁tax	-3342
ondon	-3343
▁impl	-3344
▁believed	-3345
▁commit	-3346
ball	-3347
ummer	-3348
▁App	-3349
▁approach	-3350
▁determin	-3351
▁Go	-3352
illy	-3353
▁nearly	-3354
▁nucle	-3355
▁allowing	-3356
▁coming	-3357
zman	-3358
▁First	-3359
nie	-3360
▁address	-3361
▁attract	-3362
▁services	-3363
▁orders	-3364
7)	-3365
aded	-3366
▁Carn	-3367
▁image	-3368
▁Skrull	-3369
▁conduct	-3370
▁quality	-3371
▁fish	-3372
eds	-3373
▁Magneto	-3374
▁Out	-3375
▁compan	-3376
▁Research	-3377
osition	-3378
▁mental	-3379
▁consist	-3380
▁bab	-3381
ords	-3382
▁total	-3383
0,	-3384
ems	-3385
▁average	-3386
▁security	-3387
▁reading	-3388
▁eat	-3389
▁wild	-3390
▁Larry	-3391
▁Sinn	-3392
▁serious	-3393
▁apart	-3394
fl	-3395
oster	-3396
▁check	-3397
▁Japanese	-3398
▁kidn	-3399
▁thinking	-3400
▁tim	-3401
based	-3402
▁Us	-3403
25	-3404
zz	-3405
▁ir	-3406
omen	-3407
▁mention	-3408
▁Mur	-3409
▁China	-3410
usband	-3411
ansion	-3412
▁suddenly	-3413
ronic	-3414
▁figure	-3415
hew	-3416
inger	-3417
▁confronted	-3418
see	-3419
▁(200	-3420
▁thous	-3421
▁growing	-3422
ios	-3423
▁fav	-3424
ns	-3425
▁Nazi	-3426
▁enemy	-3427
ounts	-3428
▁Jean	-3429
hern	-3430
inking	-3431
▁explos	-3432
▁particularly	-3433
house	-3434
▁official	-3435
▁Rick	-3436
ibly	-3437
odies	-3438
▁bond	-3439
▁subst	-3440
▁Girl	-3441
▁schools	-3442
▁unc	-3443
▁grad	-3444
▁Frost	-3445
▁=	-3446
stein	-3447
▁conc	-3448
▁accident	-3449
▁race	-3450
▁understanding	-3451
▁giving	-3452
▁Project	-3453
▁towards	-3454
ength	-3455
▁slow	-3456
▁Allen	-3457
verse	-3458
▁Other	-3459
▁watch	-3460
▁disapp	-3461
▁encounter	-3462
ora	-3463
▁ste	-3464
▁walk	-3465
▁placed	-3466
▁Council	-3467
oard	-3468
well	-3469
▁helps	-3470
▁produced	-3471
▁ancient	-3472
book	-3473
▁Wolf	-3474
▁flee	-3475
▁Heroes	-3476
▁arrest	-3477
▁anything	-3478
▁scientific	-3479
▁Cons	-3480
▁bad	-3481
▁soft	-3482
▁standard	-3483
axim	-3484
De	-3485
▁Kurtzman	-3486
▁writing	-3487
ares	-3488
▁clos	-3489
▁absor	-3490
▁Sinnott	-3491
▁Miss	-3492
▁Carol	-3493
▁Master	-3494
▁Brother	-3495
▁meeting	-3496
ads	-3497
▁creature	-3498
ford	-3499
▁spirit	-3500
▁remain	-3501
▁environmental	-3502
mine	-3503
▁Greg	-3504
▁society	-3505
▁weak	-3506
__	-3507
▁deceased	-3508
▁wood	-3509
▁sources	-3510
▁24	-3511
▁pun	-3512
▁sal	-3513
▁deliver	-3514
▁becoming	-3515
▁amb	-3516
▁labor	-3517
▁meaning	-3518
▁account	-3519
▁Mort	-3520
▁effective	-3521
▁Gar	-3522
▁peace	-3523
▁directly	-3524
▁poor	-3525
▁star	-3526
▁Child	-3527
▁alien	-3528
▁genetic	-3529
▁behavior	-3530
idow	-3531
▁aud	-3532
▁obtain	-3533
oles	-3534
▁seemingly	-3535
▁Vir	-3536
▁exerc	-3537
▁capable	-3538
where	-3539
▁alter	-3540
▁master	-3541
60	-3542
▁Int	-3543
undred	-3544
▁recru	-3545
illa	-3546
▁Dis	-3547
But	-3548
oper	-3549
▁adop	-3550
▁stories	-3551
▁Ultimate	-3552
lor	-3553
ecause	-3554
rugg	-3555
▁etc	-3556
izard	-3557
▁Agent	-3558
▁alternate	-3559
win	-3560
▁probably	-3561
que	-3562
▁Ray	-3563
ropri	-3564
▁hyp	-3565
▁hot	-3566
rated	-3567
▁clean	-3568
▁Guardians	-3569
▁recently	-3570
▁0	-3571
And	-3572
ocr	-3573
▁Str	-3574
▁Christopher	-3575
▁kids	-3576
▁respect	-3577
ram	-3578
▁jud	-3579
▁River	-3580
▁Weiss	-3581
▁theory	-3582
▁Science	-3583
▁party	-3584
▁share	-3585
▁variety	-3586
▁Wild	-3587
▁compet	-3588
▁insp	-3589
▁assess	-3590
▁demonstr	-3591
▁surr	-3592
heriff	-3593
▁measure	-3594
eline	-3595
ields	-3596
▁programs	-3597
▁hy	-3598
▁Academy	-3599
iest	-3600
▁Reinman	-3601
olf	-3602
▁pack	-3603
ducing	-3604
▁Dit	-3605
▁beginning	-3606
He	-3607
ader	-3608
▁Canada	-3609
▁active	-3610
▁moment	-3611
You	-3612
▁drop	-3613
▁quite	-3614
▁1.	-3615
▁Sent	-3616
▁asks	-3617
▁Rec	-3618
▁Sav	-3619
▁emot	-3620
▁Sin	-3621
▁Pant	-3622
uments	-3623
▁London	-3624
▁La	-3625
▁magn	-3626
▁symbiote	-3627
IS	-3628
oly	-3629
▁Che	-3630
▁defin	-3631
▁healthy	-3632
rich	-3633
ashed	-3634
▁Their	-3635
▁Hydra	-3636
▁voiced	-3637
▁bit	-3638
▁exec	-3639
▁analysis	-3640
amer	-3641
rupt	-3642
▁crime	-3643
ext	-3644
force	-3645
▁advent	-3646
▁ox	-3647
▁Jer	-3648
▁der	-3649
▁everything	-3650
▁#1	-3651
inese	-3652
▁Hawkeye	-3653
▁International	-3654
▁Sat	-3655
▁guard	-3656
▁Ken	-3657
▁inn	-3658
▁soil	-3659
▁weapon	-3660
portation	-3661
At	-3662
attan	-3663
ira	-3664
oint	-3665
▁vac	-3666
Black	-3667
▁pil	-3668
▁Thompson	-3669
▁Age	-3670
▁animal	-3671
▁===	-3672
▁Conan	-3673
▁developing	-3674
▁truth	-3675
▁international	-3676
▁Book	-3677
▁Techn	-3678
gn	-3679
▁hospital	-3680
Cl	-3681
▁Ditko	-3682
leg	-3683
▁Av	-3684
mission	-3685
Pro	-3686
ala	-3687
▁ice	-3688
▁movement	-3689
edia	-3690
icated	-3691
▁convin	-3692
▁formed	-3693
▁witness	-3694
▁concent	-3695
haps	-3696
▁Wal	-3697
▁asp	-3698
▁calc	-3699
itan	-3700
▁reflect	-3701
▁independ	-3702
▁web	-3703
▁Many	-3704
▁prior	-3705
▁demand	-3706
▁organization	-3707
AT	-3708
▁pen	-3709
▁aware	-3710
▁content	-3711
▁Richards	-3712
▁happened	-3713
abet	-3714
▁rul	-3715
▁supp	-3716
▁beyond	-3717
▁lif	-3718
-0	-3719
isions	-3720
▁Off	-3721
▁Silver	-3722
▁influence	-3723
▁date	-3724
fect	-3725
▁Mil	-3726
▁Basil	-3727
▁multiple	-3728
orthern	-3729
▁culture	-3730
▁plot	-3731
▁added	-3732
▁feature	-3733
▁includes	-3734
asons	-3735
▁lands	-3736
▁inte	-3737
asp	-3738
▁offers	-3739
▁completely	-3740
Cap	-3741
gar	-3742
▁sust	-3743
▁hide	-3744
▁video	-3745
▁generally	-3746
tr	-3747
gypt	-3748
▁reveals	-3749
▁response	-3750
▁die	-3751
▁pan	-3752
▁Indian	-3753
▁Wilson	-3754
▁nearby	-3755
▁Marc	-3756
▁rescue	-3757
▁learns	-3758
▁memory	-3759
▁prof	-3760
▁Battle	-3761
▁log	-3762
▁described	-3763
hattan	-3764
ading	-3765
▁Scar	-3766
▁arrive	-3767
▁African	-3768
78	-3769
▁Army	-3770
▁Squad	-3771
ictor	-3772
hens	-3773
▁diagn	-3774
▁sound	-3775
▁factors	-3776
antly	-3777
▁Thanos	-3778
▁Ham	-3779
emic	-3780
fire	-3781
istics	-3782
▁horse	-3783
9)	-3784
▁Bel	-3785
▁ask	-3786
▁court	-3787
▁aw	-3788
▁acqu	-3789
▁superhuman	-3790
▁Jes	-3791
▁located	-3792
ryst	-3793
▁season	-3794
▁network	-3795
II	-3796
iate	-3797
alled	-3798
▁Fist	-3799
▁Betty	-3800
▁forest	-3801
▁Chinese	-3802
▁manip	-3803
▁miles	-3804
▁earlier	-3805
elligence	-3806
Sp	-3807
▁40	-3808
▁industry	-3809
rael	-3810
▁select	-3811
idden	-3812
▁workers	-3813
90	-3814
za	-3815
▁easy	-3816
▁stress	-3817
anted	-3818
▁spot	-3819
minist	-3820
▁stopped	-3821
aws	-3822
▁Richard	-3823
▁methods	-3824
itz	-3825
rate	-3826
▁fear	-3827
▁confl	-3828
bl	-3829
▁anti	-3830
room	-3831
▁highly	-3832
▁efforts	-3833
▁Jos	-3834
▁Pete	-3835
▁Osborn	-3836
▁hundred	-3837
▁numbers	-3838
oring	-3839
▁basic	-3840
www	-3841
igned	-3842
▁Manhattan	-3843
oen	-3844
▁toward	-3845
▁Up	-3846
▁reach	-3847
▁primary	-3848
▁Queen	-3849
▁myster	-3850
▁poll	-3851
▁Johnny	-3852
▁points	-3853
umed	-3854
▁ten	-3855
reland	-3856
▁Govern	-3857
ager	-3858
▁radiation	-3859
ago	-3860
rier	-3861
▁Jeff	-3862
ID	-3863
▁train	-3864
bit	-3865
▁bal	-3866
thern	-3867
▁encour	-3868
-10	-3869
▁Pre	-3870
elebr	-3871
24	-3872
nergy	-3873
▁families	-3874
▁dimens	-3875
iny	-3876
▁rap	-3877
▁private	-3878
▁alongside	-3879
▁fru	-3880
▁Pal	-3881
atively	-3882
▁assass	-3883
ban	-3884
▁affect	-3885
joy	-3886
▁http	-3887
cules	-3888
elled	-3889
▁Jane	-3890
ests	-3891
ously	-3892
▁kept	-3893
rayed	-3894
vision	-3895
▁speak	-3896
bat	-3897
▁Inter	-3898
▁distrib	-3899
▁Simon	-3900
uls	-3901
▁Young	-3902
▁destro	-3903
▁review	-3904
▁European	-3905
ties	-3906
▁den	-3907
water	-3908
▁Egypt	-3909
vert	-3910
▁contr	-3911
▁Castle	-3912
▁Land	-3913
▁Blood	-3914
▁lived	-3915
▁failed	-3916
ON	-3917
▁Cycl	-3918
▁Gwen	-3919
▁experiment	-3920
▁beaut	-3921
▁title	-3922
▁Francis	-3923
dock	-3924
▁pull	-3925
▁fellow	-3926
▁creating	-3927
▁suc	-3928
arden	-3929
▁Widow	-3930
▁management	-3931
amma	-3932
inct	-3933
▁Most	-3934
▁Strength	-3935
33	-3936
rote	-3937
▁Hartley	-3938
▁evil	-3939
▁objects	-3940
▁Rh	-3941
ione	-3942
iders	-3943
▁changed	-3944
rior	-3945
▁solar	-3946
ufact	-3947
▁magic	-3948
Sh	-3949
▁send	-3950
▁central	-3951
▁Fire	-3952
▁Beast	-3953
▁online	-3954
▁minutes	-3955
ague	-3956
▁Norman	-3957
▁Society	-3958
▁Thunder	-3959
IN	-3960
aron	-3961
▁Fin	-3962
▁Mus	-3963
▁Elect	-3964
mont	-3965
▁Mal	-3966
▁webs	-3967
▁therefore	-3968
▁cred	-3969
▁larger	-3970
▁answer	-3971
owing	-3972
▁Dest	-3973
▁introduced	-3974
▁Gill	-3975
▁Hand	-3976
▁document	-3977
▁hit	-3978
▁despite	-3979
rim	-3980
▁supply	-3981
▁property	-3982
▁ones	-3983
▁conflict	-3984
ocking	-3985
come	-3986
▁bott	-3987
▁successful	-3988
▁emb	-3989
▁Toro	-3990
osen	-3991
▁middle	-3992
▁capital	-3993
▁rout	-3994
▁Galaxy	-3995
▁presence	-3996
AR	-3997
▁Cle	-3998
▁subsequ	-3999
▁additional	-4000
▁immediately	-4001
riors	-4002
▁numer	-4003
▁writer	-4004
▁exact	-4005
▁Big	-4006
▁correct	-4007
cies	-4008
resh	-4009
▁Under	-4010
▁ideas	-4011
▁Masters	-4012
▁continu	-4013
life	-4014
▁Sym	-4015
ordin	-4016
▁Anth	-4017
▁appl	-4018
▁card	-4019
ilding	-4020
▁female	-4021
▁Carnage	-4022
▁revenge	-4023
▁sacr	-4024
▁Amazing	-4025
▁Trans	-4026
▁ended	-4027
▁Rock	-4028
▁release	-4029
▁determine	-4030
icate	-4031
▁write	-4032
▁integr	-4033
issue	-4034
▁north	-4035
urability	-4036
reek	-4037
▁Tim	-4038
Captain	-4039
▁exposure	-4040
▁DNA	-4041
▁Wat	-4042
▁Germany	-4043
▁hon	-4044
▁Mex	-4045
▁Before	-4046
▁Church	-4047
▁mountain	-4048
▁rule	-4049
▁Goblin	-4050
ker	-4051
▁Imm	-4052
▁unable	-4053
▁agents	-4054
▁Panther	-4055
▁purpose	-4056
▁Wars	-4057
▁strugg	-4058
▁ban	-4059
▁County	-4060
▁Lord	-4061
▁Brown	-4062
▁Married	-4063
▁running	-4064
▁Wolverton	-4065
▁authorities	-4066
▁policy	-4067
▁teachers	-4068
▁Defenders	-4069
▁Lat	-4070
▁Daniel	-4071
▁History	-4072
▁giant	-4073
▁blue	-4074
▁Severin	-4075
▁Americans	-4076
▁Once	-4077
▁Real	-4078
▁Civil	-4079
▁radio	-4080
▁extrem	-4081
ias	-4082
▁2,	-4083
▁board	-4084
ero	-4085
▁leads	-4086
no	-4087
▁Hy	-4088
outhern	-4089
▁chance	-4090
athan	-4091
▁har	-4092
▁habit	-4093
▁showed	-4094
ville	-4095
▁cold	-4096
quar	-4097
▁Plan	-4098
▁instit	-4099
▁escaped	-4100
▁Israel	-4101
▁Ireland	-4102
▁bodies	-4103
26	-4104
rows	-4105
alker	-4106
▁Jaff	-4107
ishes	-4108
▁Hank	-4109
▁Press	-4110
▁mo	-4111
ynam	-4112
▁hyd	-4113
sters	-4114
rog	-4115
iable	-4116
▁Mutants	-4117
▁Mobile	-4118
arlo	-4119
▁mor	-4120
▁via	-4121
While	-4122
▁alive	-4123
▁Energy	-4124
▁minim	-4125
▁neigh	-4126
▁gain	-4127
▁mole	-4128
▁x	-4129
lim	-4130
▁Life	-4131
▁Nick	-4132
▁Serv	-4133
term	-4134
Iron	-4135
▁From	-4136
▁celebr	-4137
ipp	-4138
isms	-4139
▁Cong	-4140
▁warm	-4141
▁caught	-4142
Ad	-4143
▁mist	-4144
▁broad	-4145
▁enjoy	-4146
iar	-4147
cohol	-4148
▁nuclear	-4149
▁compared	-4150
ding	-4151
ategory	-4152
▁center	-4153
▁Gab	-4154
omet	-4155
iac	-4156
arch	-4157
▁lin	-4158
▁river	-4159
▁tempor	-4160
▁protection	-4161
▁Cosmic	-4162
▁telling	-4163
ription	-4164
▁places	-4165
▁actions	-4166
▁acid	-4167
▁trees	-4168
▁Africa	-4169
▁south	-4170
▁Conn	-4171
▁Romita	-4172
▁Now	-4173
▁mill	-4174
▁massive	-4175
28	-4176
▁Tales	-4177
▁traditional	-4178
ta	-4179
▁fast	-4180
▁tend	-4181
Do	-4182
▁Bur	-4183
uate	-4184
▁Lie	-4185
▁equipment	-4186
iot	-4187
key	-4188
mosp	-4189
umably	-4190
▁appropri	-4191
▁virus	-4192
▁husband	-4193
▁contains	-4194
▁onto	-4195
▁conqu	-4196
▁grand	-4197
▁teacher	-4198
ternal	-4199
ida	-4200
airs	-4201
▁Tele	-4202
▁Baron	-4203
▁bacter	-4204
▁Jaffee	-4205
▁2.	-4206
▁benefits	-4207
▁mis	-4208
▁older	-4209
▁invent	-4210
▁summer	-4211
▁remember	-4212
▁performance	-4213
▁patient	-4214
▁Clin	-4215
aith	-4216
ship	-4217
▁Roman	-4218
▁saved	-4219
lam	-4220
idents	-4221
▁diseases	-4222
icked	-4223
ollowing	-4224
▁construct	-4225
ushed	-4226
roid	-4227
▁features	-4228
▁vit	-4229
▁crew	-4230
Re	-4231
▁Old	-4232
▁Wer	-4233
▁21	-4234
ogan	-4235
iency	-4236
▁fell	-4237
adow	-4238
apter	-4239
▁laws	-4240
▁soul	-4241
▁Western	-4242
▁Pym	-4243
▁manufact	-4244
olic	-4245
▁egg	-4246
▁ensure	-4247
▁costume	-4248
▁succeed	-4249
▁Burg	-4250
▁Grey	-4251
▁plane	-4252
▁achieve	-4253
▁investigate	-4254
▁goal	-4255
iology	-4256
▁Since	-4257
stone	-4258
▁Sand	-4259
▁wrote	-4260
aze	-4261
▁Jay	-4262
▁Blue	-4263
▁section	-4264
▁decision	-4265
▁remained	-4266
▁calls	-4267
▁passed	-4268
star	-4269
time	-4270
▁fly	-4271
orders	-4272
▁length	-4273
▁Then	-4274
▁carbon	-4275
▁pet	-4276
▁Brad	-4277
ston	-4278
iring	-4279
▁weeks	-4280
▁positive	-4281
aine	-4282
▁Odin	-4283
▁interp	-4284
set	-4285
▁McC	-4286
▁arms	-4287
▁wrong	-4288
▁finding	-4289
▁federal	-4290
aint	-4291
▁Air	-4292
▁Time	-4293
▁resur	-4294
▁establish	-4295
▁foods	-4296
▁hope	-4297
▁Arch	-4298
▁communities	-4299
▁micro	-4300
▁offered	-4301
▁ball	-4302
iful	-4303
▁guns	-4304
elly	-4305
▁lines	-4306
▁advant	-4307
21	-4308
-19	-4309
wood	-4310
▁Russian	-4311
▁colon	-4312
▁East	-4313
▁announ	-4314
▁devices	-4315
▁knocked	-4316
▁critical	-4317
mitted	-4318
AN	-4319
▁According	-4320
▁unique	-4321
ested	-4322
istry	-4323
▁outlaw	-4324
▁Space	-4325
▁note	-4326
▁wide	-4327
▁sheriff	-4328
oted	-4329
▁lat	-4330
▁daily	-4331
▁veget	-4332
▁financ	-4333
▁Christian	-4334
▁difference	-4335
▁rare	-4336
▁Stone	-4337
▁proced	-4338
▁Even	-4339
master	-4340
▁coast	-4341
▁fully	-4342
▁Rogers	-4343
▁creation	-4344
▁decre	-4345
▁intended	-4346
roc	-4347
▁box	-4348
▁storm	-4349
entially	-4350
▁village	-4351
▁Armor	-4352
▁respond	-4353
▁villain	-4354
Con	-4355
▁opportunity	-4356
▁und	-4357
ologies	-4358
▁Keller	-4359
▁purs	-4360
▁moved	-4361
▁shared	-4362
pha	-4363
▁Spec	-4364
▁eight	-4365
change	-4366
▁Flash	-4367
▁exposed	-4368
▁implement	-4369
ube	-4370
ighter	-4371
▁chief	-4372
rise	-4373
▁Cour	-4374
▁India	-4375
▁realizes	-4376
orks	-4377
Trans	-4378
▁anyone	-4379
▁dry	-4380
▁door	-4381
▁imag	-4382
▁villains	-4383
▁stage	-4384
▁fort	-4385
▁sequ	-4386
▁elimin	-4387
▁surpris	-4388
mp	-4389
merc	-4390
▁names	-4391
▁station	-4392
acing	-4393
▁Davis	-4394
bre	-4395
▁IS	-4396
▁Fore	-4397
met	-4398
more	-4399
▁Rand	-4400
▁trade	-4401
▁served	-4402
ictional	-4403
▁continues	-4404
▁aband	-4405
70	-4406
▁||	-4407
▁Port	-4408
IT	-4409
▁wid	-4410
▁cast	-4411
iative	-4412
▁Gro	-4413
▁dream	-4414
▁table	-4415
▁Del	-4416
▁Hun	-4417
▁shape	-4418
▁Two	-4419
▁staff	-4420
▁Chic	-4421
▁mentioned	-4422
With	-4423
▁rapid	-4424
ona	-4425
▁band	-4426
▁tests	-4427
▁Commun	-4428
▁artist	-4429
abetes	-4430
rin	-4431
lar	-4432
▁Bern	-4433
azz	-4434
▁Lear	-4435
▁prec	-4436
▁sends	-4437
▁progress	-4438
▁rain	-4439
▁Clare	-4440
▁choice	-4441
▁companies	-4442
▁apparently	-4443
▁destruction	-4444
ype	-4445
char	-4446
onder	-4447
▁Kree	-4448
▁transfer	-4449
col	-4450
▁Over	-4451
▁hired	-4452
▁Fam	-4453
▁baby	-4454
▁tro	-4455
edy	-4456
aken	-4457
▁explain	-4458
▁separate	-4459
▁possesses	-4460
▁hair	-4461
▁pregn	-4462
▁elements	-4463
▁storyline	-4464
kins	-4465
duces	-4466
Dr	-4467
▁legal	-4468
▁princip	-4469
vol	-4470
ees	-4471
▁drugs	-4472
▁Cyclops	-4473
▁infection	-4474
▁capac	-4475
▁Myster	-4476
onents	-4477
▁Assoc	-4478
▁vision	-4479
aled	-4480
▁basis	-4481
▁breat	-4482
▁Martin	-4483
die	-4484
▁Your	-4485
▁Heath	-4486
▁message	-4487
fort	-4488
▁Hall	-4489
powered	-4490
OR	-4491
tra	-4492
iques	-4493
▁ocean	-4494
▁worth	-4495
▁illust	-4496
▁vampire	-4497
IC	-4498
IV	-4499
▁Mic	-4500
▁degree	-4501
▁constit	-4502
▁decide	-4503
▁display	-4504
▁Infinity	-4505
pped	-4506
▁veh	-4507
▁Savage	-4508
▁Bal	-4509
▁virt	-4510
▁Skull	-4511
▁pret	-4512
▁useful	-4513
▁epis	-4514
▁saying	-4515
▁officer	-4516
So	-4517
▁Bart	-4518
▁remaining	-4519
▁pul	-4520
29	-4521
▁shall	-4522
▁style	-4523
formation	-4524
ologist	-4525
▁Of	-4526
▁largest	-4527
▁Wak	-4528
▁Supreme	-4529
▁prisoner	-4530
▁religious	-4531
Am	-4532
▁Vision	-4533
rence	-4534
▁Evil	-4535
▁uns	-4536
▁fair	-4537
▁wants	-4538
▁fuel	-4539
ibrary	-4540
▁construction	-4541
imer	-4542
olen	-4543
▁tox	-4544
Education	-4545
▁transformed	-4546
awn	-4547
▁60	-4548
▁affected	-4549
▁previously	-4550
adian	-4551
▁gone	-4552
▁Union	-4553
▁extra	-4554
iment	-4555
▁coup	-4556
▁Victor	-4557
nam	-4558
▁ded	-4559
▁hous	-4560
dy	-4561
resp	-4562
▁Tod	-4563
▁protein	-4564
iars	-4565
▁drive	-4566
▁sister	-4567
ension	-4568
▁currently	-4569
▁Ro	-4570
enty	-4571
▁Texas	-4572
▁transl	-4573
▁suggests	-4574
80	-4575
|20	-4576
▁Pac	-4577
▁Irish	-4578
▁upper	-4579
▁atmosp	-4580
▁Criminal	-4581
▁negative	-4582
Ex	-4583
▁dro	-4584
▁sort	-4585
▁user	-4586
During	-4587
icide	-4588
thur	-4589
▁Prot	-4590
▁Net	-4591
inder	-4592
▁diss	-4593
▁beings	-4594
▁Nor	-4595
▁partner	-4596
My	-4597
iger	-4598
▁requires	-4599
▁Ele	-4600
▁ultimately	-4601
ician	-4602
anging	-4603
▁Ernie	-4604
rieved	-4605
▁favor	-4606
▁Robb	-4607
▁cool	-4608
▁sees	-4609
▁numerous	-4610
mar	-4611
▁code	-4612
▁Found	-4613
▁People	-4614
▁images	-4615
▁originally	-4616
▁Mer	-4617
▁knew	-4618
esis	-4619
▁Men	-4620
▁piece	-4621
▁23	-4622
▁Grand	-4623
▁Control	-4624
▁serve	-4625
▁Claremont	-4626
jamin	-4627
▁Mass	-4628
▁owner	-4629
▁monitor	-4630
▁contract	-4631
lets	-4632
▁Luke	-4633
ctions	-4634
▁System	-4635
200	-4636
hest	-4637
▁existence	-4638
vis	-4639
▁billion	-4640
▁confront	-4641
▁essential	-4642
▁hear	-4643
friend	-4644
▁president	-4645
oma	-4646
▁Scient	-4647
▁severe	-4648
▁missing	-4649
▁ap	-4650
▁Tem	-4651
▁clin	-4652
orning	-4653
▁ordered	-4654
emo	-4655
▁church	-4656
▁Att	-4657
▁inh	-4658
▁Back	-4659
▁France	-4660
azine	-4661
▁Mach	-4662
▁follows	-4663
▁mob	-4664
rical	-4665
inos	-4666
oman	-4667
▁rise	-4668
▁accur	-4669
▁stated	-4670
▁increasing	-4671
▁eval	-4672
humans	-4673
isl	-4674
▁Pen	-4675
eless	-4676
▁Summ	-4677
▁resistance	-4678
fe	-4679
▁Journal	-4680
rum	-4681
▁file	-4682
apping	-4683
iarski	-4684
▁Water	-4685
▁Program	-4686
▁Winiarski	-4687
▁Jesus	-4688
▁screen	-4689
▁symbol	-4690
▁connection	-4691
▁End	-4692
father	-4693
▁Sinister	-4694
▁193	-4695
▁doll	-4696
▁prin	-4697
▁tools	-4698
-13	-4699
▁Dire	-4700
All	-4701
▁tal	-4702
▁carried	-4703
icted	-4704
hy	-4705
▁rich	-4706
▁Anthony	-4707
▁convers	-4708
wise	-4709
▁sil	-4710
oenix	-4711
▁Emma	-4712
▁status	-4713
▁wealth	-4714
ixed	-4715
▁notes	-4716
▁claims	-4717
▁reasons	-4718
iro	-4719
izations	-4720
▁expected	-4721
▁application	-4722
ini	-4723
▁beat	-4724
▁accomp	-4725
▁native	-4726
ado	-4727
▁Van	-4728
▁Blade	-4729
ihil	-4730
▁merc	-4731
illing	-4732
▁mir	-4733
▁helping	-4734
ortunately	-4735
▁Scarlet	-4736
ari	-4737
ola	-4738
year	-4739
▁road	-4740
▁reports	-4741
▁Franklin	-4742
▁teaching	-4743
By	-4744
ano	-4745
▁flow	-4746
ements	-4747
▁expect	-4748
▁2010	-4749
▁Vince	-4750
▁Because	-4751
▁,	-4752
▁Jr	-4753
▁eth	-4754
▁bran	-4755
▁purch	-4756
▁approx	-4757
gery	-4758
▁Bolt	-4759
▁Jewish	-4760
▁Building	-4761
enth	-4762
umes	-4763
▁heard	-4764
▁perfect	-4765
En	-4766
▁Sn	-4767
▁Cur	-4768
▁Children	-4769
▁Fur	-4770
▁adj	-4771
▁receive	-4772
▁strateg	-4773
▁mort	-4774
ifying	-4775
▁identify	-4776
▁Inst	-4777
onscious	-4778
▁Surfer	-4779
▁factor	-4780
▁wonder	-4781
▁removed	-4782
ella	-4783
▁manage	-4784
▁Despite	-4785
▁possessed	-4786
▁Sen	-4787
▁Here	-4788
▁agric	-4789
▁collection	-4790
lers	-4791
▁autom	-4792
▁alcohol	-4793
▁phil	-4794
▁sites	-4795
▁Indust	-4796
▁terror	-4797
▁monster	-4798
▁providing	-4799
AC	-4800
▁blast	-4801
med	-4802
▁Add	-4803
▁mutated	-4804
▁myst	-4805
▁Grimm	-4806
▁expand	-4807
▁consequ	-4808
▁i	-4809
bird	-4810
▁waste	-4811
▁sought	-4812
▁communication	-4813
dsky	-4814
▁Brodsky	-4815
▁Met	-4816
aming	-4817
▁Forte	-4818
▁window	-4819
cles	-4820
▁fit	-4821
▁van	-4822
▁Good	-4823
▁Prime	-4824
▁adults	-4825
▁distance	-4826
cal	-4827
ils	-4828
ounding	-4829
▁prompt	-4830
▁winter	-4831
▁sch	-4832
rogen	-4833
▁link	-4834
▁26	-4835
▁Marie	-4836
▁moving	-4837
▁resulting	-4838
▁identified	-4839
EN	-4840
apers	-4841
▁games	-4842
▁Bull	-4843
essler	-4844
▁confirm	-4845
▁interesting	-4846
▁Ob	-4847
bert	-4848
▁Pike	-4849
▁isn	-4850
▁quant	-4851
ultural	-4852
▁exercise	-4853
▁extremely	-4854
alle	-4855
elest	-4856
▁website	-4857
arp	-4858
▁Esp	-4859
▁Gil	-4860
iciency	-4861
▁Warren	-4862
▁hum	-4863
right	-4864
▁Rule	-4865
▁birds	-4866
raction	-4867
▁advanced	-4868
▁software	-4869
▁appropriate	-4870
abs	-4871
▁shr	-4872
▁College	-4873
▁testing	-4874
kes	-4875
▁3,	-4876
▁Fer	-4877
▁smaller	-4878
▁combined	-4879
▁Ma	-4880
▁benefit	-4881
Don	-4882
perial	-4883
▁presumably	-4884
ako	-4885
▁analy	-4886
▁custom	-4887
▁perhaps	-4888
▁ign	-4889
▁cook	-4890
▁commerc	-4891
▁suppl	-4892
▁ment	-4893
▁determined	-4894
Thing	-4895
▁ends	-4896
▁solution	-4897
▁covered	-4898
ament	-4899
▁decl	-4900
ession	-4901
▁Annual	-4902
▁Ec	-4903
ching	-4904
▁ready	-4905
▁cosmic	-4906
▁picture	-4907
▁youth	-4908
▁latter	-4909
▁refused	-4910
ails	-4911
▁telepath	-4912
▁vess	-4913
▁Dar	-4914
▁trap	-4915
▁Sentin	-4916
▁agreed	-4917
bro	-4918
aware	-4919
▁immune	-4920
▁actual	-4921
▁gained	-4922
pin	-4923
ulner	-4924
▁breaks	-4925
▁waters	-4926
▁Asgardian	-4927
▁Jud	-4928
ashes	-4929
▁felt	-4930
▁therapy	-4931
▁operation	-4932
▁techniques	-4933
▁Head	-4934
▁thanks	-4935
wide	-4936
emies	-4937
▁operations	-4938
▁fresh	-4939
▁spent	-4940
ante	-4941
onic	-4942
irrel	-4943
▁doub	-4944
rupted	-4945
aud	-4946
▁occurs	-4947
▁express	-4948
▁reference	-4949
▁Tal	-4950
▁seek	-4951
▁Phoenix	-4952
iled	-4953
▁Charl	-4954
▁Moore	-4955
▁visited	-4956
▁Ry	-4957
▁Also	-4958
▁sustain	-4959
olutionary	-4960
▁Education	-4961
▁Witch	-4962
▁majority	-4963
ulf	-4964
atur	-4965
▁depend	-4966
▁injury	-4967
-20	-4968
arks	-4969
▁2012	-4970
▁financial	-4971
▁eating	-4972
▁explained	-4973
▁Government	-4974
):	-4975
rec	-4976
▁sam	-4977
▁steps	-4978
▁Lo	-4979
▁Div	-4980
▁Australia	-4981
lyn	-4982
▁trial	-4983
▁catch	-4984
▁costs	-4985
ette	-4986
Or	-4987
▁Vic	-4988
inding	-4989
▁invasion	-4990
van	-4991
actor	-4992
▁survive	-4993
AL	-4994
▁Ram	-4995
▁Bellman	-4996
▁hearing	-4997
▁illness	-4998
▁Kit	-4999
▁limit	-5000
▁pp	-5001
aser	-5002
▁Zemo	-5003
uct	-5004
▁Roth	-5005
▁importance	-5006
vant	-5007
cular	-5008
ushes	-5009
▁challenge	-5010
Pl	-5011
aign	-5012
▁Phys	-5013
▁repe	-5014
▁bound	-5015
▁store	-5016
▁uncle	-5017
▁stolen	-5018
hand	-5019
ming	-5020
itors	-5021
riage	-5022
▁belief	-5023
▁initially	-5024
▁Hor	-5025
orter	-5026
▁famous	-5027
▁presented	-5028
ench	-5029
iamond	-5030
▁teleport	-5031
owell	-5032
▁newsp	-5033
▁charge	-5034
▁troops	-5035
▁swe	-5036
▁Corps	-5037
▁Wessler	-5038
cop	-5039
icking	-5040
▁meant	-5041
▁foreign	-5042
enses	-5043
hered	-5044
ij	-5045
▁earn	-5046
ourney	-5047
▁seven	-5048
▁Foster	-5049
▁journal	-5050
▁expert	-5051
▁letter	-5052
▁Develop	-5053
▁reached	-5054
rane	-5055
▁freedom	-5056
▁electricity	-5057
Force	-5058
▁believes	-5059
rison	-5060
▁Louis	-5061
▁rules	-5062
redible	-5063
umber	-5064
▁Danny	-5065
▁happen	-5066
▁married	-5067
▁citizens	-5068
isk	-5069
▁Six	-5070
▁Nova	-5071
▁Dragon	-5072
▁morning	-5073
rystal	-5074
▁refuses	-5075
▁novel	-5076
▁Burgos	-5077
imates	-5078
▁rates	-5079
lection	-5080
equ	-5081
unk	-5082
▁Hol	-5083
olved	-5084
▁(199	-5085
ificial	-5086
mas	-5087
apes	-5088
▁Arthur	-5089
▁Lieber	-5090
▁belong	-5091
▁historical	-5092
▁unit	-5093
▁depart	-5094
▁hidden	-5095
These	-5096
▁failure	-5097
76	-5098
Americ	-5099
▁leaders	-5100
▁trained	-5101
-18	-5102
▁Ver	-5103
▁Lang	-5104
▁male	-5105
encies	-5106
orcer	-5107
▁noted	-5108
▁Dev	-5109
▁Social	-5110
▁Central	-5111
▁decades	-5112
▁22	-5113
▁UN	-5114
▁heavy	-5115
▁univers	-5116
▁Cass	-5117
▁shut	-5118
55	-5119
▁28	-5120
▁fate	-5121
▁reduced	-5122
▁advantage	-5123
▁convinced	-5124
ogen	-5125
umin	-5126
▁Colon	-5127
▁planning	-5128
▁kidnapped	-5129
ipe	-5130
▁philos	-5131
▁capacity	-5132
▁projects	-5133
▁dangerous	-5134
▁NA	-5135
rang	-5136
pent	-5137
▁visual	-5138
mat	-5139
▁Cre	-5140
▁economy	-5141
ooth	-5142
▁Tus	-5143
▁Blake	-5144
▁trust	-5145
quarters	-5146
▁Mel	-5147
▁Stacy	-5148
...?	-5149
eding	-5150
▁Kelly	-5151
PA	-5152
▁Champ	-5153
Le	-5154
Ph	-5155
▁Bay	-5156
▁Camp	-5157
▁Model	-5158
▁disgu	-5159
▁weather	-5160
down	-5161
▁mouth	-5162
▁spring	-5163
▁conscious	-5164
▁Kh	-5165
ounger	-5166
▁Johnson	-5167
▁enhanced	-5168
▁medicine	-5169
Ed	-5170
▁Ell	-5171
▁Werner	-5172
▁administ	-5173
▁Are	-5174
▁Light	-5175
▁destroying	-5176
cont	-5177
▁faith	-5178
▁remove	-5179
▁Special	-5180
Transportation	-5181
lymp	-5182
ocol	-5183
▁Shi	-5184
enced	-5185
▁Barn	-5186
▁teeth	-5187
▁survived	-5188
▁thousands	-5189
ygen	-5190
▁exhib	-5191
▁flood	-5192
▁kills	-5193
ossible	-5194
▁agrees	-5195
elestial	-5196
▁commonly	-5197
orp	-5198
▁Three	-5199
▁Combat	-5200
▁prepared	-5201
▁Brotherhood	-5202
▁Rev	-5203
▁Using	-5204
oration	-5205
▁details	-5206
▁forward	-5207
▁supposed	-5208
▁relatively	-5209
rad	-5210
▁Boy	-5211
▁crop	-5212
▁trig	-5213
▁metal	-5214
▁motor	-5215
▁versions	-5216
▁professional	-5217
▁:	-5218
oln	-5219
▁Fox	-5220
▁unf	-5221
▁diabetes	-5222
▁choose	-5223
abilities	-5224
▁Retrieved	-5225
▁industrial	-5226
▁Fe	-5227
▁spl	-5228
▁turning	-5229
rees	-5230
wing	-5231
▁buy	-5232
▁Court	-5233
▁planned	-5234
eder	-5235
estic	-5236
▁broken	-5237
lands	-5238
▁Ring	-5239
active	-5240
▁sexual	-5241
▁27	-5242
roll	-5243
orpor	-5244
▁touch	-5245
▁replaced	-5246
tic	-5247
▁Sale	-5248
iences	-5249
▁Company	-5250
▁direction	-5251
▁bed	-5252
▁Cross	-5253
issions	-5254
▁Mexico	-5255
▁Virgin	-5256
▁mutate	-5257
▁Congress	-5258
▁properties	-5259
las	-5260
▁Den	-5261
▁Ultron	-5262
▁exchange	-5263
▁Pak	-5264
▁pilot	-5265
They	-5266
▁Miller	-5267
▁trapped	-5268
▁teach	-5269
▁differences	-5270
▁map	-5271
ittee	-5272
▁Init	-5273
▁broke	-5274
▁strange	-5275
▁explosion	-5276
▁thr	-5277
ishop	-5278
▁Gary	-5279
▁maxim	-5280
▁treated	-5281
▁Foundation	-5282
▁Rad	-5283
▁sky	-5284
▁scale	-5285
▁Edward	-5286
▁processes	-5287
ugh	-5288
▁Sek	-5289
▁runs	-5290
▁Jimmy	-5291
▁aller	-5292
▁Alliance	-5293
uster	-5294
▁Dom	-5295
▁Lim	-5296
▁models	-5297
▁Fal	-5298
▁sem	-5299
▁values	-5300
▁Canadian	-5301
▁Bug	-5302
▁wasn	-5303
▁relative	-5304
▁Sab	-5305
▁block	-5306
▁somew	-5307
▁killer	-5308
▁poison	-5309
▁beautiful	-5310
▁referred	-5311
-90	-5312
pet	-5313
oldier	-5314
▁Internet	-5315
iform	-5316
▁huge	-5317
urance	-5318
▁Alpha	-5319
▁falls	-5320
▁pages	-5321
▁speech	-5322
▁examples	-5323
war	-5324
Carlo	-5325
▁Mont	-5326
▁couple	-5327
▁assassin	-5328
▁bacteria	-5329
▁meets	-5330
ingu	-5331
▁Warl	-5332
▁tissue	-5333
▁mysterious	-5334
eek	-5335
▁arrival	-5336
▁Durability	-5337
▁intelligence	-5338
ams	-5339
▁Long	-5340
▁slight	-5341
phas	-5342
▁Kle	-5343
▁pal	-5344
andra	-5345
ecting	-5346
▁controlled	-5347
▁standards	-5348
▁Cable	-5349
-12	-5350
▁...	-5351
▁Olymp	-5352
▁align	-5353
▁looks	-5354
▁initial	-5355
▁typically	-5356
iah	-5357
▁fer	-5358
▁guid	-5359
▁showing	-5360
▁cultural	-5361
▁infected	-5362
▁…	-5363
anish	-5364
rey	-5365
▁cure	-5366
ria	-5367
▁Los	-5368
itect	-5369
▁applications	-5370
icip	-5371
▁Rod	-5372
▁neck	-5373
▁enemies	-5374
mega	-5375
▁Each	-5376
▁throw	-5377
▁professor	-5378
▁Ol	-5379
Other	-5380
▁Flor	-5381
▁aboard	-5382
▁element	-5383
▁changing	-5384
▁Association	-5385
▁0.	-5386
▁190	-5387
orial	-5388
▁Mill	-5389
ensity	-5390
zer	-5391
▁cand	-5392
▁flight	-5393
▁strike	-5394
▁DeCarlo	-5395
▁greatest	-5396
▁generation	-5397
▁equal	-5398
▁spect	-5399
▁assemb	-5400
▁Inhuman	-5401
▁rescued	-5402
▁Republic	-5403
Some	-5404
▁Kore	-5405
▁grew	-5406
▁raised	-5407
RE	-5408
▁approximately	-5409
UK	-5410
ux	-5411
reck	-5412
▁nor	-5413
▁knows	-5414
unction	-5415
▁records	-5416
▁facility	-5417
▁Following	-5418
New	-5419
aped	-5420
avity	-5421
▁solid	-5422
related	-5423
▁Walker	-5424
▁breast	-5425
▁applied	-5426
▁Future	-5427
ifer	-5428
▁liber	-5429
▁digital	-5430
▁practices	-5431
▁Ve	-5432
▁Byr	-5433
▁aim	-5434
hemat	-5435
▁Organ	-5436
▁gather	-5437
▁Zomb	-5438
▁voice	-5439
▁frequently	-5440
AS	-5441
itis	-5442
uing	-5443
▁Roger	-5444
▁chest	-5445
▁users	-5446
▁fruit	-5447
▁match	-5448
▁demands	-5449
▁involve	-5450
▁accepted	-5451
Is	-5452
▁Benjamin	-5453
syl	-5454
ador	-5455
▁commercial	-5456
▁mel	-5457
▁cities	-5458
▁hour	-5459
▁reject	-5460
▁claimed	-5461
▁Williamson	-5462
▁floor	-5463
▁Carter	-5464
▁director	-5465
aste	-5466
▁mal	-5467
onent	-5468
▁vacc	-5469
▁happens	-5470
▁gene	-5471
▁compar	-5472
▁Ari	-5473
inson	-5474
useum	-5475
▁acad	-5476
abeth	-5477
board	-5478
▁Greek	-5479
▁agree	-5480
▁repro	-5481
▁allies	-5482
▁boat	-5483
▁circum	-5484
▁possibly	-5485
gt	-5486
▁situ	-5487
▁minor	-5488
▁incarn	-5489
▁Kingdom	-5490
▁Neg	-5491
▁stream	-5492
▁Who	-5493
▁Hero	-5494
▁tail	-5495
▁signal	-5496
▁briefly	-5497
▁injured	-5498
▁volume	-5499
eor	-5500
clus	-5501
▁setting	-5502
▁starting	-5503
otic	-5504
▁domin	-5505
▁glass	-5506
▁fields	-5507
HE	-5508
aria	-5509
gent	-5510
owsky	-5511
▁manif	-5512
▁flowers	-5513
▁experienced	-5514
aks	-5515
▁Circ	-5516
▁doct	-5517
▁zomb	-5518
▁Hercules	-5519
cast	-5520
▁Bud	-5521
▁vari	-5522
▁centuries	-5523
▁containing	-5524
▁Luc	-5525
▁Logan	-5526
▁flying	-5527
een	-5528
igr	-5529
▁rat	-5530
▁signs	-5531
angs	-5532
ners	-5533
▁Far	-5534
▁paid	-5535
stream	-5536
▁Krako	-5537
▁Jameson	-5538
▁interested	-5539
nes	-5540
unte	-5541
ework	-5542
oviet	-5543
▁arrested	-5544
▁campaign	-5545
▁existing	-5546
”.	-5547
eries	-5548
▁quar	-5549
▁Gerry	-5550
▁prefer	-5551
ifted	-5552
▁clim	-5553
▁territ	-5554
▁Ext	-5555
▁2011	-5556
▁instruct	-5557
igil	-5558
▁Post	-5559
▁battles	-5560
▁Mars	-5561
izabeth	-5562
▁attrib	-5563
▁observed	-5564
rank	-5565
ointed	-5566
▁Brand	-5567
▁career	-5568
rot	-5569
▁Club	-5570
▁Thus	-5571
▁balance	-5572
▁younger	-5573
▁Ice	-5574
▁guide	-5575
▁convince	-5576
▁creatures	-5577
▁stars	-5578
▁Mister	-5579
▁seeing	-5580
▁increases	-5581
rax	-5582
field	-5583
▁Bald	-5584
▁Eric	-5585
▁street	-5586
▁UK	-5587
borg	-5588
ompl	-5589
iling	-5590
▁Leon	-5591
▁soldier	-5592
▁findings	-5593
▁Titan	-5594
▁Legion	-5595
▁surgery	-5596
▁accompan	-5597
▁sword	-5598
Sc	-5599
▁Ms	-5600
icia	-5601
igen	-5602
aders	-5603
going	-5604
▁Mult	-5605
▁milk	-5606
▁oxygen	-5607
iday	-5608
span	-5609
▁spy	-5610
inosaur	-5611
▁bottom	-5612
▁Sekowsky	-5613
▁humanity	-5614
▁portrayed	-5615
awk	-5616
orts	-5617
▁Our	-5618
gency	-5619
▁vast	-5620
▁task	-5621
▁claws	-5622
▁legisl	-5623
▁Pacific	-5624
▁calling	-5625
▁seeking	-5626
▁Sub	-5627
elines	-5628
▁Alexander	-5629
▁prepar	-5630
▁sending	-5631
▁generate	-5632
▁apartment	-5633
▁Psych	-5634
▁defend	-5635
▁entered	-5636
27	-5637
▁Tra	-5638
▁roof	-5639
rehens	-5640
▁distinct	-5641
▁efficient	-5642
45	-5643
48	-5644
▁Viet	-5645
▁realize	-5646
imal	-5647
rome	-5648
▁mic	-5649
ipped	-5650
▁perman	-5651
▁reform	-5652
▁Alc	-5653
othes	-5654
▁Event	-5655
aka	-5656
▁row	-5657
▁Cath	-5658
▁victims	-5659
▁combination	-5660
▁(18	-5661
▁Family	-5662
▁garden	-5663
hu	-5664
alla	-5665
▁dimension	-5666
iat	-5667
ardo	-5668
▁Angeles	-5669
▁patterns	-5670
▁suggested	-5671
▁experiments	-5672
Ben	-5673
▁Step	-5674
▁Russia	-5675
▁feeling	-5676
▁Mant	-5677
▁fled	-5678
▁phen	-5679
▁clearly	-5680
▁highest	-5681
▁trouble	-5682
with	-5683
▁Use	-5684
▁Wood	-5685
raight	-5686
enary	-5687
orage	-5688
▁Klein	-5689
▁recommend	-5690
omic	-5691
raham	-5692
▁util	-5693
▁Eddie	-5694
Category	-5695
ographic	-5696
▁Florida	-5697
▁memories	-5698
▁performed	-5699
▁regarding	-5700
ayer	-5701
load	-5702
▁Rem	-5703
▁Kent	-5704
▁annual	-5705
▁mostly	-5706
▁Environment	-5707
▁Gi	-5708
▁round	-5709
▁Museum	-5710
gia	-5711
aver	-5712
ousin	-5713
▁height	-5714
▁opin	-5715
▁observ	-5716
▁Destroy	-5717
▁neighbor	-5718
▁accidentally	-5719
▁Hit	-5720
ulating	-5721
▁editor	-5722
Pat	-5723
Cont	-5724
mates	-5725
▁moon	-5726
▁camer	-5727
▁disorders	-5728
▁Dist	-5729
▁sugar	-5730
▁disorder	-5731
▁successfully	-5732
▁35	-5733
▁west	-5734
▁faster	-5735
▁pieces	-5736
▁college	-5737
▁defined	-5738
▁violence	-5739
▁completed	-5740
ota	-5741
▁Tur	-5742
▁Dorm	-5743
▁Tuska	-5744
▁conclud	-5745
sor	-5746
cest	-5747
▁Jews	-5748
▁Powell	-5749
▁regions	-5750
▁connected	-5751
uan	-5752
olar	-5753
which	-5754
center	-5755
zy	-5756
▁Doc	-5757
▁comics	-5758
▁double	-5759
▁returning	-5760
lines	-5761
▁2008	-5762
▁Both	-5763
▁Command	-5764
▁Commission	-5765
omy	-5766
▁Its	-5767
asure	-5768
▁interpret	-5769
▁atmosphere	-5770
▁Royal	-5771
▁recon	-5772
▁Soviet	-5773
▁played	-5774
▁measures	-5775
▁4,	-5776
▁186	-5777
▁boss	-5778
▁Bo	-5779
▁episode	-5780
▁Celestial	-5781
▁keeping	-5782
▁functions	-5783
▁Rel	-5784
▁prove	-5785
▁muscle	-5786
stitution	-5787
▁technologies	-5788
ED	-5789
▁bill	-5790
ushing	-5791
▁northern	-5792
▁alternative	-5793
sm	-5794
▁qual	-5795
▁song	-5796
▁Daily	-5797
▁sed	-5798
▁tribe	-5799
▁Barton	-5800
▁accompl	-5801
▁appearing	-5802
▁adapt	-5803
▁gal	-5804
▁core	-5805
ounted	-5806
▁dying	-5807
▁income	-5808
itter	-5809
▁sets	-5810
▁Valley	-5811
▁excess	-5812
Avengers	-5813
vill	-5814
▁Class	-5815
▁occup	-5816
agger	-5817
▁interview	-5818
OS	-5819
ixt	-5820
▁Whit	-5821
▁lose	-5822
▁trail	-5823
▁Rac	-5824
▁Sea	-5825
▁Cage	-5826
▁Instead	-5827
▁vitamin	-5828
▁instance	-5829
▁tum	-5830
▁bone	-5831
▁scen	-5832
▁stone	-5833
▁playing	-5834
▁electrical	-5835
ras	-5836
▁Bre	-5837
axter	-5838
uthors	-5839
rays	-5840
▁Jac	-5841
▁Barb	-5842
▁Sant	-5843
▁phone	-5844
▁Danvers	-5845
▁overall	-5846
▁yourself	-5847
▁organizations	-5848
100	-5849
▁Ot	-5850
▁ing	-5851
▁Bend	-5852
▁populations	-5853
▁assault	-5854
▁opportunities	-5855
▁Son	-5856
▁genes	-5857
▁notice	-5858
▁justice	-5859
▁Su	-5860
▁Team	-5861
rition	-5862
▁emphas	-5863
▁extent	-5864
ellect	-5865
▁Speed	-5866
▁Williams	-5867
▁attacking	-5868
▁estimated	-5869
non	-5870
▁Pot	-5871
▁Etern	-5872
▁Islam	-5873
95	-5874
ilm	-5875
▁bow	-5876
▁resurrect	-5877
▁Wind	-5878
▁isol	-5879
▁Chuck	-5880
▁brings	-5881
"|	-5882
ava	-5883
eler	-5884
reta	-5885
▁cro	-5886
tical	-5887
▁gods	-5888
▁independent	-5889
top	-5890
▁shop	-5891
isible	-5892
▁Living	-5893
▁talking	-5894
▁threatened	-5895
▁myth	-5896
▁recognized	-5897
▁Sue	-5898
35	-5899
No	-5900
do	-5901
uma	-5902
▁Ast	-5903
▁3.	-5904
▁fif	-5905
▁Mand	-5906
▁vent	-5907
▁Grant	-5908
▁deaths	-5909
▁persons	-5910
▁proposed	-5911
▁realized	-5912
sen	-5913
▁informed	-5914
isp	-5915
▁dism	-5916
▁opened	-5917
▁Virginia	-5918
▁literature	-5919
brid	-5920
▁wal	-5921
ining	-5922
▁Care	-5923
▁wear	-5924
ologists	-5925
▁superior	-5926
ktra	-5927
▁III	-5928
▁behavi	-5929
▁heads	-5930
▁occurred	-5931
▁Champions	-5932
nd	-5933
ded	-5934
rain	-5935
antic	-5936
▁looked	-5937
▁Machine	-5938
▁conducted	-5939
▁unconscious	-5940
▁TV	-5941
▁sand	-5942
▁homes	-5943
▁Learning	-5944
EC	-5945
▁attempting	-5946
▁Work	-5947
▁Devil	-5948
▁fights	-5949
EL	-5950
canny	-5951
▁Coll	-5952
▁teen	-5953
▁challenges	-5954
DA	-5955
craw	-5956
umps	-5957
esting	-5958
▁Baxter	-5959
how	-5960
ibl	-5961
▁Inhumans	-5962
▁operating	-5963
vens	-5964
▁cab	-5965
▁Hill	-5966
ventional	-5967
▁reaction	-5968
▁straight	-5969
▁educational	-5970
yright	-5971
▁hopes	-5972
▁inject	-5973
▁buildings	-5974
uty	-5975
▁lic	-5976
▁tow	-5977
iminals	-5978
▁structures	-5979
El	-5980
cks	-5981
ois	-5982
atically	-5983
▁Warlock	-5984
▁exactly	-5985
▁depression	-5986
zen	-5987
▁NASA	-5988
▁Spanish	-5989
▁Warriors	-5990
ya	-5991
▁sample	-5992
▁collabor	-5993
raf	-5994
ogue	-5995
▁Bul	-5996
ungle	-5997
▁News	-5998
▁pick	-5999
▁context	-6000
▁falling	-6001
-200	-6002
overty	-6003
▁29	-6004
enom	-6005
▁Jess	-6006
▁ears	-6007
▁price	-6008
▁apply	-6009
▁officials	-6010
▁Kl	-6011
▁forcing	-6012
▁Atlantis	-6013
Gr	-6014
ena	-6015
▁fal	-6016
▁coal	-6017
▁Jerry	-6018
▁Nazis	-6019
▁Order	-6020
▁spots	-6021
eper	-6022
ophy	-6023
andom	-6024
▁instr	-6025
▁conver	-6026
▁constant	-6027
▁5,	-6028
▁Gun	-6029
clusion	-6030
▁attend	-6031
Res	-6032
▁Golden	-6033
▁Destroyer	-6034
abil	-6035
azzler	-6036
▁Mystery	-6037
▁evolution	-6038
Se	-6039
▁rot	-6040
akers	-6041
▁Rico	-6042
▁blind	-6043
▁primarily	-6044
▁walls	-6045
▁Service	-6046
▁earthqu	-6047
achus	-6048
peror	-6049
▁Crim	-6050
▁traff	-6051
▁launched	-6052
▁Development	-6053
▁castle	-6054
standing	-6055
amina	-6056
▁stre	-6057
▁Espos	-6058
▁starts	-6059
American	-6060
▁Medicine	-6061
rors	-6062
▁gamma	-6063
47	-6064
▁liqu	-6065
icious	-6066
▁Kingpin	-6067
▁adopted	-6068
▁figures	-6069
▁Esposito	-6070
enz	-6071
▁Bol	-6072
▁Gust	-6073
▁drawn	-6074
night	-6075
osite	-6076
▁Falcon	-6077
▁yellow	-6078
▁extreme	-6079
▁cattle	-6080
▁Student	-6081
▁surprised	-6082
▁experiences	-6083
ategy	-6084
utive	-6085
▁frag	-6086
▁drink	-6087
▁Street	-6088
▁credit	-6089
▁parent	-6090
▁aspects	-6091
▁abandoned	-6092
tes	-6093
unch	-6094
orrow	-6095
▁supple	-6096
▁vs	-6097
opus	-6098
▁nob	-6099
amber	-6100
▁2007	-6101
Doctor	-6102
▁Brock	-6103
▁Stand	-6104
BN	-6105
urb	-6106
crib	-6107
▁Chap	-6108
▁meat	-6109
▁spell	-6110
▁surren	-6111
adi	-6112
▁Alf	-6113
hetic	-6114
▁Like	-6115
▁tank	-6116
▁Byrne	-6117
▁Terry	-6118
▁knocks	-6119
▁Robbins	-6120
▁unaware	-6121
▁chemicals	-6122
▁sufficient	-6123
respond	-6124
▁latest	-6125
▁temperatures	-6126
atab	-6127
▁Dam	-6128
▁cycle	-6129
▁wings	-6130
▁Weapon	-6131
▁prisoners	-6132
▁Lake	-6133
▁arrang	-6134
▁Francisco	-6135
▁10,	-6136
▁Som	-6137
▁Tay	-6138
etics	-6139
▁linked	-6140
▁motion	-6141
▁leadership	-6142
▁television	-6143
Em	-6144
▁graph	-6145
Fantastic	-6146
From	-6147
oting	-6148
using	-6149
ellent	-6150
▁Paris	-6151
▁retain	-6152
▁recruited	-6153
uro	-6154
▁80	-6155
▁era	-6156
▁tour	-6157
othing	-6158
▁topic	-6159
▁worship	-6160
▁subjects	-6161
-15	-6162
According	-6163
omes	-6164
▁iron	-6165
▁rough	-6166
▁Generation	-6167
▁rub	-6168
▁Arab	-6169
alls	-6170
name	-6171
▁victim	-6172
▁holding	-6173
ati	-6174
▁subs	-6175
▁Shadow	-6176
▁widely	-6177
▁murdered	-6178
▁traveled	-6179
▁discussion	-6180
rm	-6181
▁tas	-6182
▁Manip	-6183
▁items	-6184
▁Friend	-6185
▁Imperial	-6186
fortunately	-6187
▁Industries	-6188
▁assistance	-6189
▁Syn	-6190
▁vary	-6191
▁advice	-6192
▁incarnation	-6193
▁Form	-6194
athered	-6195
▁crimes	-6196
▁criminals	-6197
▁effectively	-6198
▁Ak	-6199
▁188	-6200
▁DiP	-6201
▁nar	-6202
isation	-6203
▁struggle	-6204
▁headquarters	-6205
▁Fu	-6206
inary	-6207
opath	-6208
▁goals	-6209
▁bright	-6210
▁manner	-6211
▁DiPreta	-6212
▁Wakanda	-6213
▁ancest	-6214
▁taught	-6215
▁distribution	-6216
ums	-6217
▁crow	-6218
▁ships	-6219
▁saving	-6220
▁discovery	-6221
ht	-6222
▁eggs	-6223
▁sell	-6224
ifting	-6225
▁Micro	-6226
▁Venus	-6227
▁Stevens	-6228
▁contrast	-6229
66	-6230
umn	-6231
ammu	-6232
▁Pan	-6233
▁meal	-6234
▁stem	-6235
▁Attil	-6236
▁spider	-6237
▁circumst	-6238
ef	-6239
cel	-6240
sey	-6241
▁Upon	-6242
▁clone	-6243
▁Planet	-6244
▁survey	-6245
▁prepare	-6246
▁waiting	-6247
▁drinking	-6248
▁wel	-6249
▁toxic	-6250
▁easier	-6251
▁skilled	-6252
▁statement	-6253
▁subsequent	-6254
isis	-6255
oyal	-6256
▁pit	-6257
▁grown	-6258
▁Prince	-6259
dess	-6260
▁Arc	-6261
▁Carm	-6262
▁Cook	-6263
▁cave	-6264
ashion	-6265
▁persp	-6266
▁Joseph	-6267
▁storage	-6268
▁recorded	-6269
**	-6270
▁Ty	-6271
aunt	-6272
▁Ill	-6273
▁Coast	-6274
▁vulner	-6275
▁portion	-6276
▁electron	-6277
▁90	-6278
aked	-6279
▁Mem	-6280
named	-6281
poration	-6282
exp	-6283
▁mas	-6284
ingers	-6285
▁sight	-6286
▁Max	-6287
▁hol	-6288
▁Mountain	-6289
▁classroom	-6290
10.	-6291
ani	-6292
▁Cam	-6293
▁Moj	-6294
ifice	-6295
ighty	-6296
▁Asia	-6297
▁assign	-6298
Up	-6299
-92	-6300
inner	-6301
▁2009	-6302
▁contem	-6303
▁Bi	-6304
▁CO	-6305
rint	-6306
umer	-6307
level	-6308
▁tren	-6309
▁urban	-6310
▁amounts	-6311
▁opening	-6312
▁incorpor	-6313
▁laboratory	-6314
▁sail	-6315
▁explan	-6316
▁describe	-6317
▁familiar	-6318
▁collected	-6319
▁eliminate	-6320
gely	-6321
mond	-6322
▁Merc	-6323
▁Pier	-6324
▁Demon	-6325
▁asking	-6326
▁warning	-6327
▁Technology	-6328
outs	-6329
▁Sil	-6330
isted	-6331
itate	-6332
▁grant	-6333
▁square	-6334
▁walking	-6335
▁injuries	-6336
▁southern	-6337
▁announced	-6338
▁protected	-6339
▁expression	-6340
obe	-6341
ogle	-6342
angers	-6343
ception	-6344
▁strategies	-6345
Ap	-6346
ags	-6347
igan	-6348
▁ath	-6349
▁Second	-6350
▁struck	-6351
▁secretly	-6352
1–	-6353
PD	-6354
▁ru	-6355
▁Nic	-6356
▁fol	-6357
▁rides	-6358
iox	-6359
▁od	-6360
etts	-6361
▁Spect	-6362
▁sides	-6363
▁chronic	-6364
▁knowing	-6365
▁conservation	-6366
ca	-6367
▁Hard	-6368
▁renew	-6369
▁Annihil	-6370
▁authors	-6371
▁organic	-6372
▁occasion	-6373
▁approaches	-6374
acle	-6375
ucker	-6376
▁pure	-6377
atever	-6378
▁movie	-6379
▁Bishop	-6380
▁comment	-6381
▁defense	-6382
▁obvious	-6383
omination	-6384
Ne	-6385
▁Only	-6386
▁dust	-6387
▁none	-6388
▁ride	-6389
▁grass	-6390
▁infilt	-6391
hat	-6392
cers	-6393
clop	-6394
agers	-6395
ugger	-6396
▁Carr	-6397
▁Writ	-6398
▁park	-6399
▁carrying	-6400
acular	-6401
luding	-6402
ircraft	-6403
roph	-6404
▁70	-6405
▁Ra	-6406
west	-6407
▁2000	-6408
▁thick	-6409
▁granted	-6410
▁otherwise	-6411
bal	-6412
ablo	-6413
▁Sir	-6414
▁Lady	-6415
▁rays	-6416
▁trip	-6417
geance	-6418
▁Immort	-6419
▁surviv	-6420
”,	-6421
arts	-6422
▁inher	-6423
▁launch	-6424
▁letters	-6425
▁proceed	-6426
▁shocked	-6427
▁architect	-6428
erves	-6429
▁wave	-6430
▁Rogue	-6431
▁Det	-6432
▁Way	-6433
▁Stat	-6434
▁Medical	-6435
▁hideout	-6436
▁Symbiote	-6437
▁biological	-6438
▁encountered	-6439
ighth	-6440
▁resource	-6441
▁participants	-6442
hyd	-6443
inem	-6444
▁Wasp	-6445
▁Attilan	-6446
▁Nations	-6447
▁studied	-6448
▁clinical	-6449
▁hur	-6450
▁upd	-6451
▁Kang	-6452
▁fine	-6453
▁stim	-6454
▁answers	-6455
▁wearing	-6456
▁western	-6457
▁religion	-6458
▁decisions	-6459
▁specifically	-6460
chen	-6461
isto	-6462
▁alt	-6463
▁unle	-6464
isters	-6465
▁relationships	-6466
▁Du	-6467
aire	-6468
▁rac	-6469
▁distract	-6470
▁consumption	-6471
gies	-6472
riel	-6473
▁pup	-6474
alian	-6475
▁east	-6476
▁snow	-6477
▁degrees	-6478
▁marriage	-6479
cape	-6480
osal	-6481
▁Myst	-6482
▁copy	-6483
astern	-6484
▁Gustav	-6485
▁authority	-6486
▁Eventually	-6487
ait	-6488
▁2013	-6489
▁lung	-6490
▁shel	-6491
▁shoots	-6492
▁revealing	-6493
▁significantly	-6494
ether	-6495
▁minds	-6496
▁maximum	-6497
▁Run	-6498
▁innov	-6499
▁Bendis	-6500
▁crisis	-6501
▁33	-6502
▁Ref	-6503
▁von	-6504
▁2099	-6505
▁Every	-6506
▁Morgan	-6507
▁lesson	-6508
That	-6509
▁ghost	-6510
▁largely	-6511
49	-6512
icial	-6513
itual	-6514
▁legs	-6515
▁newly	-6516
acement	-6517
▁newspaper	-6518
▁+	-6519
▁Il	-6520
works	-6521
▁spend	-6522
▁suicide	-6523
CC	-6524
oto	-6525
ocke	-6526
▁Last	-6527
itable	-6528
urning	-6529
▁Moench	-6530
▁policies	-6531
▁resulted	-6532
-17	-6533
gal	-6534
▁HIV	-6535
▁Let	-6536
▁Free	-6537
▁salt	-6538
▁random	-6539
▁Jonathan	-6540
▁thousand	-6541
pat	-6542
▁mad	-6543
igure	-6544
▁muse	-6545
▁Comic	-6546
▁organized	-6547
▁technique	-6548
Hulk	-6549
▁2006	-6550
▁corn	-6551
▁Fel	-6552
berry	-6553
icians	-6554
▁slowly	-6555
ognitive	-6556
▁Matthew	-6557
▁Ah	-6558
▁Hom	-6559
▁Home	-6560
▁ramp	-6561
▁Chicago	-6562
▁Adventures	-6563
▁ax	-6564
agle	-6565
cript	-6566
▁Stri	-6567
▁happy	-6568
▁Though	-6569
▁options	-6570
▁Squirrel	-6571
ml	-6572
ato	-6573
ctic	-6574
▁armed	-6575
▁Winter	-6576
▁Thunderbol	-6577
rick	-6578
▁arts	-6579
▁synd	-6580
▁batter	-6581
achusetts	-6582
▁concerned	-6583
▁correspond	-6584
▁bud	-6585
▁Kane	-6586
▁links	-6587
▁assigned	-6588
▁mathemat	-6589
▁Times	-6590
▁Apache	-6591
▁rapidly	-6592
▁trigger	-6593
▁articles	-6594
▁register	-6595
▁surrounding	-6596
▁Tar	-6597
▁Wall	-6598
▁tied	-6599
▁toss	-6600
▁guards	-6601
▁explore	-6602
▁Security	-6603
▁il	-6604
icit	-6605
▁Kup	-6606
acher	-6607
chant	-6608
ormal	-6609
iveness	-6610
▁border	-6611
▁filled	-6612
▁Monster	-6613
imensional	-6614
irect	-6615
▁remov	-6616
▁CD	-6617
▁Ep	-6618
▁proved	-6619
▁procedure	-6620
wo	-6621
▁Food	-6622
▁blow	-6623
▁dogs	-6624
▁intent	-6625
▁robber	-6626
▁creates	-6627
▁pictures	-6628
▁Dog	-6629
▁ham	-6630
▁Aaron	-6631
▁consult	-6632
▁properly	-6633
mut	-6634
appy	-6635
know	-6636
▁Dun	-6637
▁Gib	-6638
▁anx	-6639
▁Mind	-6640
▁bear	-6641
▁Taylor	-6642
▁Summers	-6643
▁Scientist	-6644
lease	-6645
▁Ocean	-6646
▁layer	-6647
▁damaged	-6648
▁sacrific	-6649
▁supported	-6650
Fl	-6651
body	-6652
▁rid	-6653
▁Case	-6654
igation	-6655
▁bringing	-6656
▁internal	-6657
▁Elizabeth	-6658
ET	-6659
sec	-6660
▁tor	-6661
leton	-6662
▁tunn	-6663
▁assistant	-6664
mark	-6665
▁Exp	-6666
▁Conway	-6667
▁chosen	-6668
▁please	-6669
▁thinks	-6670
▁emotional	-6671
▁Id	-6672
care	-6673
▁shield	-6674
▁install	-6675
▁emergency	-6676
See	-6677
▁teams	-6678
▁concern	-6679
▁Initiative	-6680
▁infections	-6681
Many	-6682
olas	-6683
roke	-6684
▁flex	-6685
▁examin	-6686
▁merely	-6687
▁outlaws	-6688
oh	-6689
sts	-6690
irth	-6691
▁Mol	-6692
▁coin	-6693
▁dies	-6694
▁rail	-6695
▁raise	-6696
RA	-6697
US	-6698
gl	-6699
▁hen	-6700
allel	-6701
stood	-6702
▁Brook	-6703
▁Groot	-6704
▁Native	-6705
▁Braddock	-6706
RO	-6707
pper	-6708
▁alle	-6709
▁sick	-6710
▁crash	-6711
▁dynam	-6712
▁limits	-6713
▁phenomen	-6714
▁background	-6715
rates	-6716
▁1990	-6717
▁ISBN	-6718
▁anger	-6719
asingly	-6720
▁Little	-6721
▁characteristics	-6722
pathy	-6723
▁reun	-6724
ja	-6725
Har	-6726
road	-6727
▁Acc	-6728
gment	-6729
ifies	-6730
▁Conf	-6731
▁Gamb	-6732
▁root	-6733
▁absol	-6734
▁Having	-6735
▁Lawrence	-6736
▁involves	-6737
▁purposes	-6738
orr	-6739
tle	-6740
ugs	-6741
▁189	-6742
usted	-6743
▁tort	-6744
▁girls	-6745
▁Elektra	-6746
▁featured	-6747
▁slightly	-6748
EM	-6749
acks	-6750
▁Why	-6751
▁fem	-6752
▁Kill	-6753
▁chann	-6754
▁Yellow	-6755
▁advance	-6756
▁classes	-6757
▁greatly	-6758
▁proport	-6759
▁argument	-6760
▁thoughts	-6761
▁suffering	-6762
▁45	-6763
▁Ta	-6764
raig	-6765
▁Vill	-6766
▁Omega	-6767
▁blasts	-6768
▁retrie	-6769
▁opposed	-6770
Here	-6771
uous	-6772
antom	-6773
ensus	-6774
▁seemed	-6775
▁la	-6776
▁Mat	-6777
▁Mole	-6778
▁acts	-6779
▁dram	-6780
ructure	-6781
▁Engine	-6782
▁portal	-6783
aturally	-6784
iability	-6785
▁divided	-6786
▁driving	-6787
▁inhabit	-6788
▁magical	-6789
▁putting	-6790
▁comprehens	-6791
▁ally	-6792
▁flat	-6793
▁Bugle	-6794
▁closely	-6795
▁obtained	-6796
▁committed	-6797
▁engineering	-6798
▁Sid	-6799
▁Group	-6800
▁Sword	-6801
▁depos	-6802
▁satis	-6803
▁Federal	-6804
▁uniform	-6805
▁hundreds	-6806
▁Massachusetts	-6807
▁unl	-6808
▁tons	-6809
▁ideal	-6810
▁impris	-6811
▁poverty	-6812
36	-6813
emble	-6814
▁Anti	-6815
▁nutri	-6816
▁paint	-6817
▁burning	-6818
▁intellect	-6819
▁substance	-6820
▁recommended	-6821
.|	-6822
42	-6823
opp	-6824
utch	-6825
▁sne	-6826
▁mask	-6827
Public	-6828
▁Columb	-6829
▁responsibility	-6830
organ	-6831
▁files	-6832
amental	-6833
▁astron	-6834
▁detailed	-6835
fit	-6836
▁8,	-6837
▁jump	-6838
▁vote	-6839
▁consists	-6840
▁strategy	-6841
▁discovers	-6842
BI	-6843
yer	-6844
long	-6845
▁bird	-6846
▁dial	-6847
▁infr	-6848
▁crook	-6849
▁ordin	-6850
▁Uncanny	-6851
▁focused	-6852
▁repeated	-6853
▁consciousness	-6854
▁Middle	-6855
▁approached	-6856
irty	-6857
seye	-6858
▁wish	-6859
ancing	-6860
▁pointed	-6861
▁inspired	-6862
▁narr	-6863
▁spies	-6864
▁Hammer	-6865
▁Infant	-6866
▁surprise	-6867
▁contained	-6868
▁artificial	-6869
iano	-6870
kind	-6871
oids	-6872
that	-6873
▁cow	-6874
▁san	-6875
▁enab	-6876
Although	-6877
▁emissions	-6878
ibur	-6879
iens	-6880
▁ble	-6881
▁Zone	-6882
▁Tower	-6883
▁stored	-6884
▁coordin	-6885
▁healing	-6886
▁believing	-6887
▁potentially	-6888
▁Bab	-6889
▁unus	-6890
▁ranch	-6891
▁Kupper	-6892
▁visible	-6893
▁excellent	-6894
ev	-6895
ura	-6896
▁Arn	-6897
▁phase	-6898
▁discip	-6899
▁willing	-6900
-16	-6901
▁mamm	-6902
▁antib	-6903
▁split	-6904
uration	-6905
▁extract	-6906
▁childhood	-6907
▁components	-6908
▁circumstances	-6909
BC	-6910
alky	-6911
▁Bag	-6912
▁cry	-6913
ystem	-6914
▁Love	-6915
▁Stein	-6916
▁agency	-6917
▁Soldier	-6918
▁restore	-6919
▁samples	-6920
▁selected	-6921
▁standing	-6922
Most	-6923
itage	-6924
▁hunt	-6925
▁Major	-6926
▁faced	-6927
▁Crimson	-6928
▁Octopus	-6929
▁Vulture	-6930
▁warrior	-6931
▁household	-6932
75	-6933
.20	-6934
erm	-6935
lexes	-6936
▁jobs	-6937
▁honor	-6938
▁unless	-6939
▁habitat	-6940
▁Catholic	-6941
▁BC	-6942
naut	-6943
▁scar	-6944
▁Today	-6945
▁explo	-6946
▁resemb	-6947
▁feelings	-6948
ario	-6949
▁foll	-6950
igilante	-6951
aying	-6952
▁vital	-6953
rimination	-6954
Dec	-6955
greg	-6956
▁nav	-6957
actic	-6958
▁Barnes	-6959
▁Steven	-6960
▁suffer	-6961
▁farmers	-6962
▁principles	-6963
aos	-6964
▁nan	-6965
ester	-6966
▁stock	-6967
▁interrupted	-6968
▁personality	-6969
▁conventional	-6970
zona	-6971
▁adap	-6972
▁plat	-6973
▁films	-6974
▁smoke	-6975
▁Mutate	-6976
▁Temple	-6977
▁parties	-6978
▁entirely	-6979
▁surrender	-6980
ii	-6981
who	-6982
▁nit	-6983
▁stops	-6984
▁Hitler	-6985
▁Director	-6986
38	-6987
Now	-6988
rep	-6989
▁Top	-6990
▁false	-6991
▁indeed	-6992
▁founded	-6993
▁passing	-6994
och	-6995
▁ju	-6996
▁Bat	-6997
▁rom	-6998
▁elev	-6999
▁gathered	-7000
▁supplies	-7001
icy	-7002
▁15,	-7003
▁Berg	-7004
▁Soon	-7005
▁formula	-7006
▁hunting	-7007
eneration	-7008
▁Kupperberg	-7009
|#	-7010
▁Nich	-7011
▁Walter	-7012
▁Murdock	-7013
▁nations	-7014
▁restored	-7015
▁interests	-7016
▁Information	-7017
▁superheroes	-7018
Des	-7019
Fal	-7020
▁36	-7021
fall	-7022
teen	-7023
▁Tri	-7024
▁sen	-7025
ordon	-7026
▁Pers	-7027
▁hole	-7028
▁twenty	-7029
▁comfort	-7030
uggernaut	-7031
▁vampires	-7032
▁frequency	-7033
▁imprisoned	-7034
▁Manipulation	-7035
▁ce	-7036
....	-7037
urse	-7038
▁Nat	-7039
▁tiny	-7040
▁knock	-7041
▁ritual	-7042
▁attended	-7043
▁speaking	-7044
▁processing	-7045
▁subsequently	-7046
▁2005	-7047
▁Five	-7048
▁Another	-7049
▁timeline	-7050
▁illeg	-7051
▁typical	-7052
▁vehicle	-7053
▁wounded	-7054
▁assessment	-7055
▁increasingly	-7056
▁Collet	-7057
▁couldn	-7058
▁detect	-7059
▁residents	-7060
▁gar	-7061
oking	-7062
▁Women	-7063
▁realm	-7064
However	-7065
resents	-7066
▁sounds	-7067
▁escapes	-7068
▁academic	-7069
▁survival	-7070
▁underground	-7071
PS	-7072
igg	-7073
▁(198	-7074
▁Disc	-7075
▁Otto	-7076
▁Test	-7077
▁flame	-7078
anna	-7079
▁McG	-7080
lined	-7081
▁Pack	-7082
▁Exper	-7083
▁loyal	-7084
▁Mantlo	-7085
▁desire	-7086
▁concerns	-7087
▁DC	-7088
▁Oh	-7089
heme	-7090
▁depth	-7091
▁robots	-7092
IA	-7093
rik	-7094
anche	-7095
▁coff	-7096
ieties	-7097
▁sched	-7098
▁stret	-7099
▁render	-7100
▁Dazzler	-7101
▁officers	-7102
▁hat	-7103
▁prem	-7104
▁democr	-7105
▁Connors	-7106
▁streets	-7107
orna	-7108
ulum	-7109
state	-7110
▁firm	-7111
▁jail	-7112
▁Lizard	-7113
▁Outlaw	-7114
▁plastic	-7115
▁reducing	-7116
▁substant	-7117
▁confirmed	-7118
May	-7119
▁obl	-7120
▁hors	-7121
▁Liber	-7122
▁schol	-7123
▁Common	-7124
▁ending	-7125
▁documents	-7126
▁spiritual	-7127
bel	-7128
uzz	-7129
mother	-7130
calibur	-7131
▁Mooney	-7132
▁rushes	-7133
AD	-7134
oston	-7135
pping	-7136
▁boys	-7137
▁Office	-7138
▁liquid	-7139
▁recognize	-7140
____	-7141
▁Jason	-7142
▁sacrifice	-7143
▁impossible	-7144
auc	-7145
irt	-7146
▁adm	-7147
uting	-7148
▁rein	-7149
▁facts	-7150
crawler	-7151
orcerer	-7152
▁promote	-7153
▁replace	-7154
4).	-7155
▁AN	-7156
▁arc	-7157
inction	-7158
limited	-7159
▁Exiles	-7160
▁colors	-7161
cription	-7162
▁predict	-7163
▁attached	-7164
▁extensive	-7165
▁definition	-7166
▁institutions	-7167
Dan	-7168
ima	-7169
acts	-7170
▁Colletta	-7171
▁improved	-7172
▁holds	-7173
▁kinds	-7174
▁perce	-7175
▁volunte	-7176
▁aircraft	-7177
▁Unfortunately	-7178
ez	-7179
▁unw	-7180
ented	-7181
▁Kenn	-7182
▁Kida	-7183
▁heav	-7184
▁roll	-7185
▁Labor	-7186
▁dollars	-7187
▁employees	-7188
11)	-7189
place	-7190
▁risks	-7191
▁decade	-7192
▁Collect	-7193
▁Goldberg	-7194
▁monitoring	-7195
osh	-7196
adel	-7197
▁185	-7198
▁nine	-7199
▁formation	-7200
▁technical	-7201
▁tom	-7202
▁mine	-7203
▁derived	-7204
▁31	-7205
▁Pri	-7206
▁Origin	-7207
yal	-7208
acles	-7209
agues	-7210
uable	-7211
▁listed	-7212
▁composed	-7213
▁indicate	-7214
▁expressed	-7215
▁succeeded	-7216
erted	-7217
▁Call	-7218
▁grab	-7219
▁ring	-7220
▁Craig	-7221
▁Maxim	-7222
▁Andrew	-7223
▁critic	-7224
▁doctors	-7225
▁enhance	-7226
▁photograph	-7227
arin	-7228
▁Eld	-7229
▁horm	-7230
▁cards	-7231
atabase	-7232
▁output	-7233
▁periods	-7234
▁Australian	-7235
-80	-7236
▁Kevin	-7237
▁elder	-7238
rection	-7239
▁narrow	-7240
▁refers	-7241
▁refuge	-7242
▁9,	-7243
▁Week	-7244
▁Tiger	-7245
▁appeal	-7246
▁switch	-7247
▁intervention	-7248
Im	-7249
▁Ryan	-7250
rations	-7251
▁Cancer	-7252
itionally	-7253
!"	-7254
EG	-7255
▁6,	-7256
▁foss	-7257
▁defeats	-7258
▁discussed	-7259
▁Ox	-7260
▁sin	-7261
bridge	-7262
▁Wonder	-7263
▁enters	-7264
▁planets	-7265
▁Northern	-7266
▁represents	-7267
▁possibility	-7268
sl	-7269
okes	-7270
uper	-7271
▁Penn	-7272
▁Those	-7273
ogether	-7274
▁audience	-7275
▁mystical	-7276
▁description	-7277
▁Sar	-7278
▁kil	-7279
▁neut	-7280
▁tested	-7281
▁engaged	-7282
▁depending	-7283
▁Being	-7284
▁stole	-7285
igenous	-7286
▁Author	-7287
▁spaces	-7288
▁Jessica	-7289
▁assumed	-7290
▁governments	-7291
▁journey	-7292
▁Fang	-7293
▁motiv	-7294
▁houses	-7295
oning	-7296
acking	-7297
▁Histor	-7298
▁Stephen	-7299
▁muscles	-7300
▁suffered	-7301
▁adventurer	-7302
pir	-7303
▁Len	-7304
▁Mir	-7305
▁cod	-7306
▁Batt	-7307
▁diagnosis	-7308
▁publication	-7309
▁consequences	-7310
ogy	-7311
▁Vo	-7312
▁Cob	-7313
▁1980	-7314
cyclop	-7315
▁Color	-7316
▁closed	-7317
▁medium	-7318
▁secure	-7319
Fictional	-7320
writ	-7321
▁engage	-7322
▁satell	-7323
▁communicate	-7324
▁Po	-7325
ican	-7326
▁cart	-7327
▁Krakoa	-7328
▁custody	-7329
▁equival	-7330
▁experts	-7331
▁powered	-7332
▁animated	-7333
▁pollution	-7334
▁Battleworld	-7335
▁Thunderbolts	-7336
▁Imp	-7337
ocket	-7338
▁worse	-7339
▁hybrid	-7340
▁acceler	-7341
▁possession	-7342
▁Ba	-7343
anks	-7344
uced	-7345
▁Phantom	-7346
▁concepts	-7347
▁declared	-7348
▁movements	-7349
▁vegetables	-7350
44	-7351
izer	-7352
▁Ral	-7353
▁Ted	-7354
▁Prov	-7355
▁twice	-7356
▁temple	-7357
inations	-7358
▁Dormammu	-7359
▁millions	-7360
▁facilities	-7361
▁accompanied	-7362
39	-7363
▁ST	-7364
▁Barry	-7365
▁Bible	-7366
▁infer	-7367
▁slave	-7368
▁entity	-7369
▁Indians	-7370
▁relevant	-7371
▁involving	-7372
▁AD	-7373
iana	-7374
▁Pur	-7375
▁Such	-7376
▁sing	-7377
▁Absor	-7378
▁Billy	-7379
aternal	-7380
▁Magazine	-7381
▁employed	-7382
▁concentration	-7383
amora	-7384
▁therm	-7385
ishment	-7386
▁beneath	-7387
▁supporting	-7388
▁requirements	-7389
▁7,	-7390
▁1970	-7391
▁adopt	-7392
▁units	-7393
▁Hunter	-7394
▁Through	-7395
▁Hellfire	-7396
▁extended	-7397
▁employment	-7398
▁Corporation	-7399
▁Az	-7400
▁Mu	-7401
Char	-7402
tegr	-7403
▁flo	-7404
istan	-7405
▁wait	-7406
▁joint	-7407
▁Series	-7408
▁efficiency	-7409
▁profession	-7410
▁agricultural	-7411
ece	-7412
ses	-7413
▁km	-7414
▁Herb	-7415
▁edge	-7416
▁unre	-7417
▁Along	-7418
▁chose	-7419
▁flash	-7420
▁closer	-7421
▁hiding	-7422
▁script	-7423
▁victory	-7424
▁Constitution	-7425
▁Abel	-7426
▁Gray	-7427
▁math	-7428
▁rocket	-7429
▁evening	-7430
▁languages	-7431
▁practical	-7432
▁12,	-7433
▁ske	-7434
▁tub	-7435
ocent	-7436
▁corp	-7437
▁Enter	-7438
▁bones	-7439
▁rival	-7440
▁Arizona	-7441
▁Lu	-7442
▁Eth	-7443
▁Aven	-7444
▁Serpent	-7445
▁funding	-7446
▁readers	-7447
including	-7448
▁confronts	-7449
Our	-7450
ais	-7451
owed	-7452
▁tall	-7453
▁Satan	-7454
▁hyper	-7455
▁serum	-7456
▁formal	-7457
▁serving	-7458
▁pregnant	-7459
500	-7460
▁foe	-7461
▁hem	-7462
▁Betsy	-7463
▁rural	-7464
▁views	-7465
▁candid	-7466
▁dropped	-7467
▁finished	-7468
32	-7469
but	-7470
▁Lob	-7471
comes	-7472
inter	-7473
▁ages	-7474
▁intr	-7475
▁Excalibur	-7476
▁demonstrated	-7477
▁Nel	-7478
Falco	-7479
▁fundamental	-7480
▁conversation	-7481
Her	-7482
ugg	-7483
emon	-7484
▁bridge	-7485
▁losing	-7486
▁repair	-7487
▁Electro	-7488
▁situations	-7489
▁experimental	-7490
▁introduction	-7491
▁rig	-7492
▁hall	-7493
▁battled	-7494
▁Nicholas	-7495
▁4.	-7496
rets	-7497
Beast	-7498
▁brown	-7499
▁promin	-7500
▁DeFalco	-7501
▁Jackson	-7502
▁proteins	-7503
▁sentence	-7504
aga	-7505
▁Jacob	-7506
▁doubt	-7507
▁Spring	-7508
▁Terror	-7509
▁topics	-7510
▁awareness	-7511
▁particles	-7512
pan	-7513
point	-7514
▁lies	-7515
▁Gamma	-7516
▁marine	-7517
ipl	-7518
bell	-7519
▁Cho	-7520
▁harv	-7521
▁Italy	-7522
▁Dimens	-7523
▁Further	-7524
▁conquer	-7525
▁brothers	-7526
▁immediate	-7527
▁perspective	-7528
▁Conqu	-7529
▁Party	-7530
itional	-7531
▁sector	-7532
▁minimum	-7533
▁Students	-7534
▁incident	-7535
▁watching	-7536
olve	-7537
▁USA	-7538
▁pra	-7539
essed	-7540
▁immun	-7541
▁Gordon	-7542
▁searching	-7543
▁understood	-7544
acc	-7545
burg	-7546
▁gender	-7547
▁fashion	-7548
▁Therefore	-7549
▁fictional	-7550
sk	-7551
Mill	-7552
▁202	-7553
▁Bad	-7554
▁unp	-7555
▁truck	-7556
▁mainly	-7557
▁stands	-7558
▁Chapman	-7559
▁operate	-7560
▁playable	-7561
▁treatments	-7562
heim	-7563
▁Due	-7564
▁outer	-7565
▁Gerber	-7566
▁Rights	-7567
▁pretty	-7568
▁pulled	-7569
AM	-7570
arsh	-7571
▁Tum	-7572
▁Buck	-7573
▁joins	-7574
▁Suddenly	-7575
▁distingu	-7576
▁Sentinels	-7577
Col	-7578
▁11,	-7579
▁wet	-7580
etime	-7581
▁Latin	-7582
▁fluid	-7583
▁Robinson	-7584
▁regional	-7585
▁supervill	-7586
razy	-7587
▁Fle	-7588
▁Crime	-7589
▁loved	-7590
▁Italian	-7591
▁breaking	-7592
▁ordinary	-7593
▁defeating	-7594
ION	-7595
▁mix	-7596
▁Marv	-7597
▁cars	-7598
▁puts	-7599
▁Years	-7600
▁truly	-7601
▁Leader	-7602
▁noticed	-7603
▁Division	-7604
▁certainly	-7605
la	-7606
Sec	-7607
eling	-7608
▁coun	-7609
▁sole	-7610
▁county	-7611
▁informs	-7612
▁agreement	-7613
▁id	-7614
▁300	-7615
▁Lin	-7616
▁cup	-7617
▁Forg	-7618
▁opinion	-7619
▁whatever	-7620
kel	-7621
▁14,	-7622
reated	-7623
▁photos	-7624
▁Vietnam	-7625
▁corrupt	-7626
▁biography	-7627
97	-7628
▁1:	-7629
▁fib	-7630
omach	-7631
▁Fried	-7632
▁Ringo	-7633
▁Father	-7634
▁remind	-7635
▁slaves	-7636
▁Crystal	-7637
▁writers	-7638
▁transported	-7639
More	-7640
otion	-7641
▁error	-7642
alkyrie	-7643
▁option	-7644
▁depicted	-7645
▁normally	-7646
.'	-7647
37	-7648
oli	-7649
eria	-7650
itud	-7651
▁Cab	-7652
Venom	-7653
▁Scot	-7654
alysis	-7655
▁input	-7656
▁Op	-7657
▁McK	-7658
uplic	-7659
▁Bush	-7660
▁Gang	-7661
▁flower	-7662
▁fighter	-7663
▁district	-7664
▁somewhat	-7665
▁naturally	-7666
▁represented	-7667
▁NO	-7668
▁Die	-7669
▁peak	-7670
▁Anton	-7671
amework	-7672
▁marked	-7673
▁Wolfman	-7674
▁insects	-7675
98	-7676
▁Eye	-7677
▁Yet	-7678
▁pig	-7679
▁mobile	-7680
▁drawing	-7681
▁request	-7682
▁Ros	-7683
▁Corn	-7684
▁Cost	-7685
▁trav	-7686
arliam	-7687
▁lover	-7688
▁driven	-7689
▁electronic	-7690
Death	-7691
▁scope	-7692
▁Action	-7693
▁Atlantic	-7694
▁contribute	-7695
lete	-7696
green	-7697
iffer	-7698
▁Budd	-7699
▁aren	-7700
called	-7701
▁owned	-7702
▁print	-7703
▁neither	-7704
▁shortly	-7705
▁shooting	-7706
▁dedicated	-7707
Publication	-7708
bur	-7709
▁gall	-7710
▁Maria	-7711
▁buried	-7712
▁parallel	-7713
RI	-7714
nic	-7715
lesh	-7716
▁Meph	-7717
▁cruc	-7718
▁hoping	-7719
▁museum	-7720
▁investment	-7721
Bet	-7722
asty	-7723
otta	-7724
wife	-7725
▁25,	-7726
▁Sus	-7727
▁1975.	-7728
▁flies	-7729
▁Greene	-7730
▁Southern	-7731
▁<	-7732
isi	-7733
iner	-7734
wind	-7735
▁Fab	-7736
▁Dynam	-7737
▁acting	-7738
▁domain	-7739
etically	-7740
▁artists	-7741
▁controls	-7742
▁stronger	-7743
▁permanent	-7744
▁conclusion	-7745
▁physically	-7746
agg	-7747
agen	-7748
shot	-7749
▁mos	-7750
▁ahead	-7751
▁painting	-7752
▁constitution	-7753
ohn	-7754
▁Kam	-7755
▁lie	-7756
▁Miles	-7757
▁plays	-7758
▁tooth	-7759
▁Boston	-7760
▁election	-7761
▁pregnancy	-7762
▁regularly	-7763
▁vulnerable	-7764
▁constructed	-7765
▁32	-7766
arms	-7767
▁Jul	-7768
▁Mos	-7769
acket	-7770
uated	-7771
▁Vamp	-7772
▁Blaze	-7773
▁beans	-7774
ascular	-7775
▁corner	-7776
inematic	-7777
▁instruction	-7778
▁nin	-7779
▁blog	-7780
▁Starl	-7781
▁goods	-7782
control	-7783
▁warming	-7784
▁measured	-7785
46	-7786
▁Dor	-7787
▁forg	-7788
▁cyber	-7789
▁waves	-7790
▁encourage	-7791
▁organisms	-7792
oming	-7793
▁club	-7794
▁Gambit	-7795
▁hostage	-7796
▁origins	-7797
▁opposite	-7798
uce	-7799
uto	-7800
▁Var	-7801
▁Lorna	-7802
▁sharp	-7803
▁Agents	-7804
▁adding	-7805
▁handle	-7806
▁scheme	-7807
▁sequence	-7808
▁Committee	-7809
▁187	-7810
rigen	-7811
▁fasc	-7812
▁retreat	-7813
▁solutions	-7814
rs	-7815
▁wed	-7816
▁Board	-7817
▁advoc	-7818
▁bonds	-7819
▁simpl	-7820
▁Watson	-7821
▁tracks	-7822
igration	-7823
▁Negative	-7824
▁interven	-7825
▁computers	-7826
EO	-7827
Ind	-7828
orph	-7829
▁tale	-7830
▁Rosen	-7831
▁abuse	-7832
▁horses	-7833
▁Library	-7834
▁dealing	-7835
▁impacts	-7836
▁kingdom	-7837
▁minions	-7838
▁psychic	-7839
forcement	-7840
bot	-7841
uts	-7842
▁Dise	-7843
▁email	-7844
▁fired	-7845
▁seeks	-7846
▁Nature	-7847
▁Wildey	-7848
▁ongoing	-7849
▁Squadron	-7850
▁participate	-7851
▁Karl	-7852
▁poet	-7853
▁pool	-7854
▁metab	-7855
▁royal	-7856
▁Reilly	-7857
▁camera	-7858
▁Colonel	-7859
▁disappear	-7860
▁mechanical	-7861
1).	-7862
gel	-7863
math	-7864
▁Adv	-7865
▁Bank	-7866
▁Shaw	-7867
▁Ralph	-7868
▁flees	-7869
▁ruler	-7870
▁skill	-7871
▁format	-7872
▁traffic	-7873
▁producing	-7874
▁colleagues	-7875
▁NY	-7876
▁THE	-7877
coming	-7878
▁chain	-7879
▁forth	-7880
▁route	-7881
▁listen	-7882
▁attitude	-7883
▁external	-7884
iece	-7885
iral	-7886
oyle	-7887
wart	-7888
▁Cro	-7889
▁Vern	-7890
▁poly	-7891
▁Marsh	-7892
▁cloud	-7893
▁trick	-7894
▁recovery	-7895
▁earthquake	-7896
cat	-7897
mate	-7898
▁sad	-7899
ennis	-7900
▁grade	-7901
▁plate	-7902
▁Review	-7903
▁desert	-7904
ibilities	-7905
▁expensive	-7906
▁separated	-7907
▁discrimination	-7908
romos	-7909
▁zone	-7910
▁moist	-7911
▁Iceman	-7912
ifts	-7913
▁tea	-7914
▁empt	-7915
▁wire	-7916
▁cooper	-7917
▁visits	-7918
▁travels	-7919
▁Incredible	-7920
hide	-7921
icar	-7922
rete	-7923
▁Face	-7924
▁prev	-7925
porary	-7926
▁moves	-7927
▁machines	-7928
▁platform	-7929
▁IV	-7930
▁facil	-7931
certain	-7932
▁Police	-7933
▁Portug	-7934
animated	-7935
▁passage	-7936
▁division	-7937
▁relation	-7938
▁investigation	-7939
ST	-7940
▁16,	-7941
Patsy	-7942
ossus	-7943
struct	-7944
▁kidney	-7945
▁Natural	-7946
▁convinces	-7947
▁happening	-7948
▁manipulate	-7949
▁resurrected	-7950
rid	-7951
incoln	-7952
▁Heart	-7953
▁shift	-7954
istance	-7955
▁fourth	-7956
▁library	-7957
▁Abomination	-7958
▁temporarily	-7959
34	-7960
eng	-7961
look	-7962
▁Cop	-7963
▁Well	-7964
▁bare	-7965
▁memb	-7966
▁statue	-7967
▁vessel	-7968
▁invited	-7969
▁domestic	-7970
▁territory	-7971
▁transformation	-7972
3).	-7973
▁Es	-7974
▁fo	-7975
▁haz	-7976
ograp	-7977
▁Short	-7978
▁absence	-7979
▁threats	-7980
asy	-7981
yth	-7982
▁Ha	-7983
▁MD	-7984
esity	-7985
▁trop	-7986
arliament	-7987
▁syndrome	-7988
Not	-7989
agl	-7990
Lord	-7991
odge	-7992
thal	-7993
onomic	-7994
▁photo	-7995
▁proof	-7996
▁affects	-7997
▁knocking	-7998
▁Environmental	-7999
alo	-8000
apse	-8001
oral	-8002
▁Stu	-8003
ersey	-8004
▁Know	-8005
▁crops	-8006
osystem	-8007
▁Pierce	-8008
56	-8009
ING	-8010
▁Giant	-8011
▁essay	-8012
▁reader	-8013
▁valuable	-8014
▁explanation	-8015
▁inhabitants	-8016
lok	-8017
avok	-8018
▁Card	-8019
iations	-8020
▁stomach	-8021
▁agencies	-8022
da	-8023
Why	-8024
aska	-8025
nest	-8026
▁alg	-8027
Frank	-8028
▁lift	-8029
▁load	-8030
▁seed	-8031
▁Among	-8032
▁Burke	-8033
▁Freed	-8034
▁Spirit	-8035
▁facing	-8036
▁disaster	-8037
▁surviving	-8038
low	-8039
comp	-8040
▁13,	-8041
icing	-8042
▁Treat	-8043
▁angry	-8044
▁Report	-8045
▁mansion	-8046
▁Terrigen	-8047
?”	-8048
thes	-8049
▁17,	-8050
▁Ins	-8051
▁Curt	-8052
▁Fear	-8053
▁Tart	-8054
▁mini	-8055
linson	-8056
▁frame	-8057
▁moral	-8058
▁stren	-8059
▁Mephisto	-8060
▁vehicles	-8061
▁receiving	-8062
▁worldwide	-8063
Qu	-8064
mind	-8065
osph	-8066
▁Dak	-8067
▁Lab	-8068
ullen	-8069
▁inner	-8070
▁negot	-8071
▁butter	-8072
▁enable	-8073
▁captain	-8074
▁formerly	-8075
mann	-8076
▁Tan	-8077
awhide	-8078
ectors	-8079
▁McCoy	-8080
▁feels	-8081
▁optim	-8082
▁Unknown	-8083
▁adapted	-8084
free	-8085
▁aer	-8086
▁flag	-8087
nership	-8088
▁forget	-8089
▁chapter	-8090
▁descend	-8091
▁matters	-8092
aro	-8093
icken	-8094
rehen	-8095
▁fires	-8096
riculum	-8097
▁Latver	-8098
▁issued	-8099
▁papers	-8100
▁mercenary	-8101
▁witnessed	-8102
▁protecting	-8103
whel	-8104
▁Andy	-8105
▁Clay	-8106
▁Wing	-8107
▁Ancient	-8108
▁Columbia	-8109
▁Christmas	-8110
▁revolution	-8111
▁Box	-8112
▁Ren	-8113
▁fan	-8114
umped	-8115
▁Gall	-8116
▁ster	-8117
Origin	-8118
▁chair	-8119
▁entry	-8120
▁fangs	-8121
▁eastern	-8122
▁principle	-8123
dimensional	-8124
TS	-8125
umen	-8126
▁18,	-8127
▁Get	-8128
▁bio	-8129
▁34	-8130
▁Fight	-8131
▁noise	-8132
▁warriors	-8133
▁reduction	-8134
▁sensitive	-8135
▁preventing	-8136
")	-8137
▁37	-8138
hart	-8139
oves	-8140
idity	-8141
▁Braz	-8142
▁Hope	-8143
▁spin	-8144
▁Again	-8145
▁Rhino	-8146
iversal	-8147
▁Nelson	-8148
▁prices	-8149
▁signed	-8150
▁Charlie	-8151
▁insurance	-8152
▁teammates	-8153
mun	-8154
▁19,	-8155
▁pump	-8156
▁surf	-8157
▁award	-8158
▁branch	-8159
▁decline	-8160
▁restrict	-8161
▁scholars	-8162
angel	-8163
normal	-8164
▁adequ	-8165
▁shock	-8166
▁fingers	-8167
▁violent	-8168
▁offering	-8169
▁component	-8170
▁Kim	-8171
Gener	-8172
▁drag	-8173
Factor	-8174
▁Gabriel	-8175
Pe	-8176
iy	-8177
hma	-8178
hawk	-8179
▁Jen	-8180
▁scr	-8181
anges	-8182
▁Jenn	-8183
▁Tall	-8184
▁tips	-8185
▁About	-8186
▁absorb	-8187
▁produces	-8188
▁Commandos	-8189
▁Oks	-8190
▁Quest	-8191
▁Donald	-8192
▁Stamina	-8193
▁altered	-8194
▁creative	-8195
CO	-8196
Go	-8197
▁Eff	-8198
▁dragon	-8199
▁secondary	-8200
96	-8201
Matt	-8202
ailed	-8203
▁Emer	-8204
▁Rome	-8205
▁laser	-8206
▁Design	-8207
▁immort	-8208
▁sustainable	-8209
igo	-8210
eman	-8211
▁Ash	-8212
▁Mah	-8213
▁Gods	-8214
▁embry	-8215
▁toler	-8216
▁bullet	-8217
▁Mansion	-8218
istration	-8219
▁summoned	-8220
▁wildlife	-8221
▁Dimension	-8222
▁survivors	-8223
▁competition	-8224
▁Adams	-8225
▁dance	-8226
▁fault	-8227
▁shell	-8228
▁Jersey	-8229
▁accurate	-8230
31	-8231
zed	-8232
from	-8233
uten	-8234
zing	-8235
▁20,	-8236
▁27,	-8237
orous	-8238
▁exped	-8239
▁orbit	-8240
▁rising	-8241
▁stroke	-8242
▁describes	-8243
▁recovered	-8244
oak	-8245
nett	-8246
▁Down	-8247
▁Story	-8248
▁nerve	-8249
Another	-8250
▁cousin	-8251
▁vessels	-8252
town	-8253
▁Agency	-8254
▁devast	-8255
▁volcan	-8256
▁Emperor	-8257
▁Lincoln	-8258
▁acquired	-8259
▁directed	-8260
▁Kat	-8261
▁Rox	-8262
ediat	-8263
▁Fant	-8264
▁conce	-8265
▁fract	-8266
▁medic	-8267
▁Oksner	-8268
▁locations	-8269
oken	-8270
▁cru	-8271
▁Expl	-8272
▁pulls	-8273
▁stick	-8274
▁reward	-8275
▁Diamond	-8276
▁studying	-8277
▁generated	-8278
▁75	-8279
▁Mist	-8280
▁Andre	-8281
sylocke	-8282
▁assume	-8283
▁circle	-8284
▁server	-8285
▁Russell	-8286
▁mechanism	-8287
▁nutrition	-8288
▁Collection	-8289
▁equivalent	-8290
ami	-8291
▁du	-8292
▁Mack	-8293
▁Near	-8294
▁Brain	-8295
▁tracked	-8296
▁followers	-8297
emen	-8298
guard	-8299
itled	-8300
ports	-8301
▁elected	-8302
▁District	-8303
▁modified	-8304
▁stealing	-8305
▁Realizing	-8306
▁Juggernaut	-8307
▁commission	-8308
▁500	-8309
▁fix	-8310
heart	-8311
throp	-8312
▁Beck	-8313
aturing	-8314
▁bonded	-8315
▁owners	-8316
▁thrown	-8317
▁cutting	-8318
▁Cinematic	-8319
▁prevention	-8320
LA	-8321
▁Chem	-8322
▁solve	-8323
▁riding	-8324
ventions	-8325
▁Skrulls	-8326
▁reaches	-8327
▁Carolina	-8328
▁overwhel	-8329
▁molecular	-8330
▁procedures	-8331
88	-8332
oded	-8333
gthen	-8334
▁thin	-8335
itated	-8336
▁Jonah	-8337
▁flames	-8338
▁sports	-8339
grad	-8340
▁Anna	-8341
▁lect	-8342
▁mixed	-8343
▁veter	-8344
▁warns	-8345
daughter	-8346
▁achieved	-8347
▁resident	-8348
ao	-8349
2).	-8350
idey	-8351
omer	-8352
▁ingred	-8353
▁activated	-8354
▁Hay	-8355
▁pin	-8356
▁spr	-8357
rying	-8358
▁Publ	-8359
▁Forge	-8360
anguage	-8361
attered	-8362
▁apprec	-8363
▁senses	-8364
▁targets	-8365
▁watched	-8366
▁constantly	-8367
▁Iss	-8368
▁coc	-8369
rovers	-8370
▁liver	-8371
▁anxiety	-8372
▁mountains	-8373
41	-8374
elve	-8375
▁mart	-8376
▁assum	-8377
▁inhib	-8378
▁rocks	-8379
▁hammer	-8380
▁silver	-8381
▁politics	-8382
▁spending	-8383
▁selection	-8384
▁considerable	-8385
-98	-8386
▁6.	-8387
▁ven	-8388
ilarly	-8389
▁adjust	-8390
▁afford	-8391
▁inflamm	-8392
▁molecules	-8393
HO	-8394
rod	-8395
irds	-8396
▁Hob	-8397
▁Kal	-8398
ounder	-8399
▁Muslim	-8400
▁Rocket	-8401
▁Justice	-8402
▁Starlin	-8403
▁guidelines	-8404
aki	-8405
▁3:	-8406
riot	-8407
asant	-8408
owski	-8409
▁categ	-8410
▁seeds	-8411
▁Austin	-8412
▁database	-8413
▁Tumlinson	-8414
War	-8415
ayed	-8416
▁Eis	-8417
▁ear	-8418
▁jew	-8419
▁Data	-8420
▁Hawk	-8421
▁Woman	-8422
▁panel	-8423
▁steel	-8424
olester	-8425
▁Balder	-8426
▁titles	-8427
▁wouldn	-8428
▁Without	-8429
▁seconds	-8430
▁decrease	-8431
▁protocol	-8432
cope	-8433
laim	-8434
onia	-8435
▁Est	-8436
▁bat	-8437
heric	-8438
derick	-8439
▁fertil	-8440
▁passes	-8441
▁remote	-8442
▁shapes	-8443
▁tribes	-8444
▁Intelligence	-8445
▁administration	-8446
rett	-8447
▁Kar	-8448
▁phr	-8449
▁Ohio	-8450
▁Korea	-8451
▁Spain	-8452
▁Brazil	-8453
▁inches	-8454
▁depends	-8455
▁illegal	-8456
▁retrieve	-8457
▁Infantino	-8458
▁traveling	-8459
▁Ze	-8460
film	-8461
▁Look	-8462
▁fill	-8463
▁Wreck	-8464
▁fails	-8465
▁smart	-8466
▁finish	-8467
▁throne	-8468
▁Abraham	-8469
▁Zombies	-8470
▁fishing	-8471
▁emotions	-8472
▁generations	-8473
7).	-8474
rip	-8475
▁Sr	-8476
▁af	-8477
draw	-8478
▁Mrs	-8479
▁Saf	-8480
▁TRN	-8481
▁Rous	-8482
▁spac	-8483
vealed	-8484
▁locals	-8485
▁player	-8486
▁helpful	-8487
aved	-8488
▁pir	-8489
▁hurt	-8490
issues	-8491
▁Guide	-8492
▁surve	-8493
▁Bullseye	-8494
▁Hospital	-8495
▁magnetic	-8496
rix	-8497
▁pip	-8498
▁Body	-8499
▁serves	-8500
▁calcium	-8501
astructure	-8502
irs	-8503
▁2:	-8504
amps	-8505
such	-8506
▁Pop	-8507
▁www	-8508
▁crowd	-8509
▁moder	-8510
▁dischar	-8511
ictionary	-8512
▁clothing	-8513
▁comprehensive	-8514
John	-8515
▁sew	-8516
▁Hunt	-8517
Millie	-8518
ecraft	-8519
▁boost	-8520
▁Carlos	-8521
▁Google	-8522
▁trials	-8523
ployment	-8524
▁Encyclop	-8525
AP	-8526
MS	-8527
ente	-8528
▁Whe	-8529
action	-8530
▁aspect	-8531
▁fallen	-8532
▁minute	-8533
▁assembled	-8534
▁agriculture	-8535
apy	-8536
▁Ten	-8537
rible	-8538
▁multi	-8539
▁Assass	-8540
▁connect	-8541
▁examine	-8542
▁Valkyrie	-8543
▁suitable	-8544
bra	-8545
▁21,	-8546
▁Rab	-8547
▁1960	-8548
▁rebu	-8549
▁Baker	-8550
▁index	-8551
▁Bernie	-8552
▁biggest	-8553
▁wealthy	-8554
▁Colossus	-8555
▁inventor	-8556
▁manifest	-8557
▁indicates	-8558
etch	-8559
▁28,	-8560
▁400	-8561
▁Aut	-8562
▁fulf	-8563
overed	-8564
▁Forest	-8565
▁covers	-8566
▁respectively	-8567
▁Kas	-8568
▁Tre	-8569
▁duty	-8570
▁tent	-8571
stract	-8572
▁cabin	-8573
▁orange	-8574
▁Douglas	-8575
▁Studies	-8576
▁edition	-8577
▁joining	-8578
▁lessons	-8579
▁absorbed	-8580
izz	-8581
upt	-8582
arus	-8583
ulpt	-8584
▁Heb	-8585
▁tex	-8586
ugene	-8587
anning	-8588
▁Kitty	-8589
▁Stern	-8590
▁keeps	-8591
▁rever	-8592
▁Wizard	-8593
▁budget	-8594
▁duplic	-8595
ufer	-8596
after	-8597
anged	-8598
▁Much	-8599
▁judge	-8600
tenance	-8601
olesterol	-8602
▁medications	-8603
IL	-8604
▁priest	-8605
▁association	-8606
?"	-8607
wes	-8608
press	-8609
▁exists	-8610
▁jungle	-8611
▁neighb	-8612
▁heavily	-8613
▁Ale	-8614
▁Nav	-8615
worth	-8616
ficial	-8617
▁loose	-8618
▁prohib	-8619
▁choices	-8620
▁compris	-8621
▁medication	-8622
▁surrounded	-8623
▁disappeared	-8624
mn	-8625
bar	-8626
igue	-8627
avery	-8628
eenth	-8629
riele	-8630
▁Dean	-8631
▁tong	-8632
▁Creat	-8633
▁escaping	-8634
Dark	-8635
▁Guy	-8636
▁rush	-8637
usions	-8638
▁islands	-8639
▁physics	-8640
▁Gabriele	-8641
▁magazine	-8642
▁weakness	-8643
▁appearances	-8644
▁connections	-8645
▁("	-8646
mith	-8647
▁Aff	-8648
▁occas	-8649
▁usual	-8650
▁produc	-8651
bec	-8652
erry	-8653
ulis	-8654
aired	-8655
▁Hick	-8656
iration	-8657
▁debate	-8658
velation	-8659
▁Anderson	-8660
▁transmission	-8661
▁Bry	-8662
claim	-8663
raith	-8664
▁2020	-8665
▁Manny	-8666
▁click	-8667
▁diver	-8668
▁dismiss	-8669
▁settled	-8670
65	-8671
Com	-8672
▁38	-8673
gans	-8674
ragon	-8675
▁debt	-8676
▁nurs	-8677
▁thor	-8678
heimer	-8679
▁demons	-8680
▁Century	-8681
▁theories	-8682
].	-8683
yon	-8684
▁IN	-8685
▁Gor	-8686
▁Hal	-8687
rance	-8688
▁charged	-8689
▁forming	-8690
▁signals	-8691
▁mainstream	-8692
onym	-8693
page	-8694
▁Gem	-8695
arant	-8696
asses	-8697
ewolf	-8698
▁Drax	-8699
▁diff	-8700
▁Asian	-8701
▁passen	-8702
▁Chapter	-8703
▁hydrogen	-8704
▁university	-8705
▁Spectacular	-8706
▁transportation	-8707
gas	-8708
usa	-8709
▁24,	-8710
▁awak	-8711
▁fewer	-8712
▁Cullen	-8713
▁Mother	-8714
▁Nathan	-8715
▁remark	-8716
▁selling	-8717
▁Eternals	-8718
▁civilian	-8719
▁internet	-8720
▁independence	-8721
She	-8722
▁Duck	-8723
▁Iran	-8724
▁Cooper	-8725
▁Danger	-8726
▁entering	-8727
▁mutation	-8728
▁sections	-8729
▁necessarily	-8730
▁Osc	-8731
▁boot	-8732
istant	-8733
▁horiz	-8734
▁marks	-8735
▁ruled	-8736
▁sales	-8737
▁Sentinel	-8738
▁partners	-8739
▁landscape	-8740
▁Management	-8741
.’	-8742
43	-8743
xual	-8744
▁Trim	-8745
riving	-8746
▁brand	-8747
▁taste	-8748
▁driver	-8749
▁lights	-8750
▁purchase	-8751
ymph	-8752
▁tur	-8753
ionic	-8754
oured	-8755
riers	-8756
▁Fisk	-8757
▁lake	-8758
▁Mount	-8759
▁corpor	-8760
▁claiming	-8761
▁frequent	-8762
▁temporary	-8763
▁interaction	-8764
▁neighborhood	-8765
DP	-8766
era	-8767
nel	-8768
oys	-8769
▁Sa	-8770
▁22,	-8771
▁Hud	-8772
▁fixed	-8773
▁grants	-8774
▁helmet	-8775
▁Finally	-8776
▁Roberts	-8777
▁recruit	-8778
▁confused	-8779
▁diversity	-8780
▁involvement	-8781
Oct	-8782
iki	-8783
now	-8784
----	-8785
icon	-8786
▁2004	-8787
▁Mord	-8788
▁Task	-8789
▁wing	-8790
encing	-8791
▁hears	-8792
▁distant	-8793
▁favorite	-8794
▁Atlantean	-8795
▁delivered	-8796
TM	-8797
emia	-8798
iary	-8799
▁23,	-8800
▁Any	-8801
Since	-8802
orgon	-8803
▁Oper	-8804
▁Brood	-8805
▁Raven	-8806
▁incap	-8807
▁breath	-8808
▁charges	-8809
▁promise	-8810
▁Egyptian	-8811
▁threatening	-8812
CS	-8813
Jan	-8814
▁OF	-8815
▁Lew	-8816
▁Pfe	-8817
▁Rub	-8818
lando	-8819
rified	-8820
▁empty	-8821
▁sweet	-8822
▁exclus	-8823
▁intake	-8824
▁sharing	-8825
▁comments	-8826
vironments	-8827
▁cognitive	-8828
ila	-8829
▁5.	-8830
▁FBI	-8831
▁cert	-8832
▁Never	-8833
▁locked	-8834
▁rarely	-8835
▁stages	-8836
▁Deathlok	-8837
▁ecosystem	-8838
▁virtually	-8839
',	-8840
▁Ric	-8841
▁wer	-8842
itely	-8843
▁Trib	-8844
▁busy	-8845
▁grave	-8846
▁aftermath	-8847
ahl	-8848
iley	-8849
▁Dig	-8850
▁jur	-8851
▁Rachel	-8852
▁pounds	-8853
▁Orlando	-8854
▁council	-8855
▁disguise	-8856
▁terrorist	-8857
she	-8858
elli	-8859
First	-8860
▁Word	-8861
▁roots	-8862
▁drought	-8863
▁Minister	-8864
▁destroys	-8865
dis	-8866
▁cou	-8867
▁Giac	-8868
▁laid	-8869
▁lots	-8870
▁sons	-8871
▁fatal	-8872
▁fruits	-8873
▁existed	-8874
▁controvers	-8875
Over	-8876
oked	-8877
vania	-8878
▁paras	-8879
enstein	-8880
▁biology	-8881
▁compens	-8882
▁evolved	-8883
▁forests	-8884
▁accounts	-8885
▁reporter	-8886
▁Nightcrawler	-8887
▁url	-8888
yroid	-8889
▁Room	-8890
▁strip	-8891
▁beauty	-8892
▁legend	-8893
▁spotted	-8894
▁composition	-8895
▁presentation	-8896
gi	-8897
aret	-8898
usal	-8899
acked	-8900
▁Ford	-8901
▁Lind	-8902
▁mode	-8903
▁mood	-8904
esthetic	-8905
▁unusual	-8906
▁girlfriend	-8907
▁Organization	-8908
mo	-8909
Gal	-8910
kih	-8911
hips	-8912
▁kit	-8913
inite	-8914
▁Chief	-8915
▁Arctic	-8916
▁sudden	-8917
▁diamond	-8918
▁Dinosaur	-8919
▁Forgione	-8920
▁Unlimited	-8921
▁elsewhere	-8922
hyth	-8923
omed	-8924
▁Nov	-8925
▁Sut	-8926
isdom	-8927
▁Erik	-8928
▁recy	-8929
▁reput	-8930
▁towns	-8931
▁Georgia	-8932
▁Administ	-8933
▁rejected	-8934
▁satellite	-8935
yne	-8936
▁Nob	-8937
armed	-8938
▁Anne	-8939
▁Game	-8940
▁Garg	-8941
ixture	-8942
▁actor	-8943
▁relax	-8944
▁trace	-8945
Amazing	-8946
▁Hickman	-8947
▁administr	-8948
▁resistant	-8949
rac	-8950
▁PM	-8951
iper	-8952
olds	-8953
▁cas	-8954
▁sab	-8955
eland	-8956
ilton	-8957
▁Aunt	-8958
▁Laur	-8959
cribed	-8960
▁1974.	-8961
natural	-8962
▁Morisi	-8963
▁locate	-8964
▁string	-8965
icarrier	-8966
▁somehow	-8967
▁strikes	-8968
▁Guardian	-8969
▁philosophy	-8970
Car	-8971
adeh	-8972
▁192	-8973
eping	-8974
▁Jedi	-8975
▁Sean	-8976
weight	-8977
▁Plant	-8978
▁aliens	-8979
▁Pfeufer	-8980
▁collaps	-8981
▁feeding	-8982
▁landing	-8983
▁carefully	-8984
oia	-8985
oren	-8986
rine	-8987
▁orb	-8988
irits	-8989
▁Next	-8990
ulates	-8991
▁theme	-8992
ocation	-8993
▁empire	-8994
▁Kennedy	-8995
▁reaching	-8996
5).	-8997
Bab	-8998
http	-8999
oggy	-9000
▁bes	-9001
▁Isab	-9002
▁Stall	-9003
theless	-9004
▁Democr	-9005
▁deadly	-9006
▁relief	-9007
▁Network	-9008
▁Sciences	-9009
▁Christians	-9010
▁strengthen	-9011
▁institution	-9012
gric	-9013
▁Put	-9014
heast	-9015
▁Fair	-9016
▁Make	-9017
▁gift	-9018
▁dress	-9019
▁stable	-9020
▁diverse	-9021
Def	-9022
last	-9023
▁Read	-9024
▁subdu	-9025
▁fairly	-9026
▁Carmine	-9027
▁quarter	-9028
▁Colorado	-9029
▁overcome	-9030
▁Friedrich	-9031
▁intention	-9032
▁observations	-9033
gic	-9034
bons	-9035
▁Laz	-9036
▁Vis	-9037
▁1976.	-9038
▁acknow	-9039
▁infant	-9040
▁Benulis	-9041
▁carries	-9042
▁manager	-9043
▁branches	-9044
▁graduate	-9045
▁permission	-9046
▁Wy	-9047
word	-9048
▁fro	-9049
otton	-9050
pread	-9051
▁Chen	-9052
▁Crus	-9053
itches	-9054
▁improving	-9055
▁difficulty	-9056
▁investigating	-9057
OU	-9058
8).	-9059
Stud	-9060
▁Books	-9061
▁Drake	-9062
▁settle	-9063
▁worlds	-9064
▁elderly	-9065
▁moments	-9066
IM	-9067
abul	-9068
foot	-9069
child	-9070
▁Mess	-9071
inated	-9072
mented	-9073
▁Eadeh	-9074
▁Murad	-9075
▁Watch	-9076
▁knife	-9077
▁stood	-9078
ounters	-9079
▁impress	-9080
idespread	-9081
▁ambushed	-9082
▁nutrients	-9083
▁intellectual	-9084
OL	-9085
▁48	-9086
agan	-9087
▁Mes	-9088
cling	-9089
eting	-9090
▁Suit	-9091
▁bull	-9092
▁Phill	-9093
▁yield	-9094
steroid	-9095
▁Trimpe	-9096
earchers	-9097
▁courses	-9098
▁assisted	-9099
▁stopping	-9100
▁exception	-9101
▁consisting	-9102
hua	-9103
▁150	-9104
▁sle	-9105
▁nose	-9106
abotta	-9107
▁1978.	-9108
▁shore	-9109
▁intense	-9110
▁targeted	-9111
▁Carrabotta	-9112
▁Revolution	-9113
▁opposition	-9114
▁Additionally	-9115
Gu	-9116
ls	-9117
oyd	-9118
onde	-9119
ypes	-9120
▁Hot	-9121
puter	-9122
▁Amaz	-9123
▁Hark	-9124
▁conj	-9125
▁1983.	-9126
▁Aston	-9127
▁cliff	-9128
▁picked	-9129
▁comprom	-9130
▁consume	-9131
▁consumed	-9132
▁Annihilus	-9133
▁physician	-9134
93	-9135
olk	-9136
▁Ok	-9137
warf	-9138
aping	-9139
otype	-9140
▁Turn	-9141
▁maps	-9142
▁Study	-9143
▁aside	-9144
▁cultiv	-9145
▁hypnot	-9146
▁wishes	-9147
▁environments	-9148
xon	-9149
itar	-9150
tery	-9151
▁Him	-9152
ieves	-9153
▁oral	-9154
▁Early	-9155
▁Field	-9156
▁abund	-9157
▁exceed	-9158
▁equally	-9159
▁Blueberry	-9160
▁Telepathy	-9161
▁instantly	-9162
Br	-9163
sos	-9164
▁ES	-9165
scale	-9166
▁Casey	-9167
▁faces	-9168
▁squad	-9169
▁stake	-9170
▁stead	-9171
▁tasks	-9172
▁extend	-9173
▁rivers	-9174
Professor	-9175
▁tracking	-9176
▁lightning	-9177
▁instructions	-9178
otto	-9179
▁Rud	-9180
▁VII	-9181
▁begun	-9182
▁texts	-9183
▁Simons	-9184
▁conference	-9185
▁technological	-9186
MD	-9187
eters	-9188
▁Loth	-9189
▁Prin	-9190
▁push	-9191
▁undert	-9192
▁designs	-9193
▁obesity	-9194
▁expansion	-9195
▁curriculum	-9196
RC	-9197
▁26,	-9198
erals	-9199
olves	-9200
▁Dian	-9201
itting	-9202
itudes	-9203
▁corpse	-9204
▁define	-9205
▁speeds	-9206
▁Tartagl	-9207
▁sitting	-9208
▁threatens	-9209
▁vigilante	-9210
▁durability	-9211
▁mild	-9212
▁Alien	-9213
▁accum	-9214
▁thief	-9215
▁tunnel	-9216
▁circuit	-9217
▁robbery	-9218
▁appointed	-9219
▁framework	-9220
▁comparison	-9221
ova	-9222
ucks	-9223
▁Global	-9224
▁autism	-9225
▁Roussos	-9226
▁gravity	-9227
▁outcome	-9228
▁session	-9229
▁compound	-9230
▁outcomes	-9231
?!	-9232
lem	-9233
aton	-9234
▁Ent	-9235
▁Vin	-9236
sover	-9237
▁Sign	-9238
▁Susan	-9239
▁craft	-9240
▁flesh	-9241
▁funds	-9242
▁Brooklyn	-9243
▁messages	-9244
ifications	-9245
▁concluded	-9246
▁infrastructure	-9247
rd	-9248
-23	-9249
rell	-9250
▁30,	-9251
ansas	-9252
ioxide	-9253
▁Check	-9254
▁Penny	-9255
▁Santa	-9256
▁acids	-9257
▁bears	-9258
▁Harold	-9259
▁fisher	-9260
▁reluct	-9261
▁fatigue	-9262
▁roughly	-9263
▁explaining	-9264
▁foundation	-9265
hi	-9266
pris	-9267
ulin	-9268
▁ray	-9269
▁aged	-9270
▁thro	-9271
▁Eagle	-9272
▁Pablo	-9273
▁label	-9274
▁quiet	-9275
General	-9276
▁Queens	-9277
▁layers	-9278
▁Freedom	-9279
▁Warrior	-9280
▁demonstrate	-9281
▁1/	-9282
ikip	-9283
▁Cer	-9284
▁Cut	-9285
▁Front	-9286
▁Gumen	-9287
elligent	-9288
▁whereas	-9289
▁promised	-9290
ba	-9291
don	-9292
mans	-9293
gence	-9294
zilla	-9295
▁Best	-9296
▁Dutch	-9297
▁Mason	-9298
▁fever	-9299
▁param	-9300
▁usage	-9301
iseries	-9302
▁Archie	-9303
▁Heaven	-9304
▁fright	-9305
▁regime	-9306
▁neutral	-9307
▁engineer	-9308
▁supports	-9309
▁department	-9310
▁mechanisms	-9311
84	-9312
spe	-9313
Note	-9314
ascia	-9315
▁Cast	-9316
▁races	-9317
ighters	-9318
▁Alfred	-9319
▁mining	-9320
▁tissues	-9321
▁Tartaglione	-9322
rox	-9323
▁7.	-9324
abits	-9325
inker	-9326
▁Kate	-9327
▁gard	-9328
ervous	-9329
imming	-9330
▁aging	-9331
▁Oxford	-9332
▁Pakula	-9333
▁fossil	-9334
▁tongue	-9335
▁worker	-9336
▁crucial	-9337
▁notices	-9338
▁visitors	-9339
▁Vengeance	-9340
92	-9341
car	-9342
cia	-9343
Comm	-9344
▁Alz	-9345
aling	-9346
▁Base	-9347
▁Poll	-9348
▁mant	-9349
▁1977.	-9350
▁acres	-9351
▁Albert	-9352
▁galaxy	-9353
▁Patrick	-9354
▁aggress	-9355
▁guarant	-9356
▁missions	-9357
▁monsters	-9358
▁identical	-9359
▁cholesterol	-9360
po	-9361
Gen	-9362
imp	-9363
adows	-9364
inesis	-9365
itizen	-9366
kihiro	-9367
shaped	-9368
▁2012.	-9369
▁Atlas	-9370
▁spoke	-9371
ifferent	-9372
▁Eastern	-9373
▁Morales	-9374
▁enables	-9375
▁reverse	-9376
▁shelter	-9377
▁networks	-9378
▁sunlight	-9379
▁visiting	-9380
▁gradually	-9381
▁percentage	-9382
9).	-9383
▁Rav	-9384
▁Sky	-9385
ranch	-9386
▁dose	-9387
▁rose	-9388
▁Dream	-9389
▁Havok	-9390
▁Pauline	-9391
▁emerged	-9392
▁afterwards	-9393
▁manufacturing	-9394
="2	-9395
▁Si	-9396
▁tut	-9397
agram	-9398
erman	-9399
opter	-9400
▁Prop	-9401
▁furn	-9402
Challa	-9403
urrent	-9404
▁grows	-9405
▁Hebrew	-9406
▁Seeing	-9407
▁orient	-9408
▁sculpt	-9409
ikipedia	-9410
▁Widowed	-9411
▁intends	-9412
▁diagnosed	-9413
▁encounters	-9414
▁widespread	-9415
▁partnership	-9416
▁probability	-9417
▁transferred	-9418
▁contemporary	-9419
:||	-9420
rus	-9421
icts	-9422
▁Eve	-9423
Agent	-9424
▁mand	-9425
▁Agric	-9426
▁Glenn	-9427
▁drain	-9428
▁Nation	-9429
▁insect	-9430
▁Giacoia	-9431
▁receives	-9432
▁principal	-9433
6).	-9434
Can	-9435
Dav	-9436
awa	-9437
phone	-9438
▁List	-9439
▁gate	-9440
estine	-9441
▁1973.	-9442
▁union	-9443
▁Circle	-9444
▁Alascia	-9445
▁Rawhide	-9446
▁fleeing	-9447
▁Stallman	-9448
▁covering	-9449
▁encouraged	-9450
Te	-9451
wa	-9452
gun	-9453
June	-9454
leon	-9455
▁Bor	-9456
▁neu	-9457
▁ped	-9458
plant	-9459
▁Foom	-9460
▁Zola	-9461
▁Hyper	-9462
▁Louise	-9463
▁coffee	-9464
▁hunter	-9465
▁counsel	-9466
▁isolated	-9467
▁Resources	-9468
▁continuing	-9469
▁IP	-9470
atal	-9471
▁Has	-9472
▁Hop	-9473
▁Hind	-9474
▁Holy	-9475
▁leaf	-9476
▁chase	-9477
▁taxes	-9478
▁tumor	-9479
▁Gamora	-9480
▁Unlike	-9481
▁deeper	-9482
▁Collins	-9483
▁chamber	-9484
▁Sorcerer	-9485
▁prominent	-9486
▁reactions	-9487
91	-9488
CD	-9489
Haw	-9490
ige	-9491
▁ps	-9492
▁Tig	-9493
▁dict	-9494
▁Chase	-9495
ingsley	-9496
▁micros	-9497
struction	-9498
▁operated	-9499
▁copyright	-9500
▁ourselves	-9501
Us	-9502
Two	-9503
def	-9504
gov	-9505
odus	-9506
▁aqu	-9507
▁Exec	-9508
▁reign	-9509
▁saves	-9510
▁Wright	-9511
▁burned	-9512
▁digest	-9513
'.	-9514
Of	-9515
▁180	-9516
▁Mot	-9517
plate	-9518
▁gest	-9519
▁Clint	-9520
▁Slott	-9521
▁banks	-9522
▁hotel	-9523
▁miniseries	-9524
sa	-9525
Kid	-9526
una	-9527
July	-9528
Tony	-9529
olph	-9530
urers	-9531
▁Page	-9532
▁Susp	-9533
▁Town	-9534
▁Clark	-9535
▁Robot	-9536
▁Cyborg	-9537
▁Dennis	-9538
▁Taking	-9539
▁mineral	-9540
▁suspect	-9541
▁battling	-9542
▁essentially	-9543
▁maintenance	-9544
Med	-9545
Rec	-9546
real	-9547
▁29,	-9548
▁semi	-9549
estyle	-9550
▁Lance	-9551
▁crooks	-9552
▁flexible	-9553
▁prevented	-9554
▁consistent	-9555
▁influenced	-9556
▁transition	-9557
▁confrontation	-9558
IP	-9559
Sk	-9560
ela	-9561
▁Ll	-9562
cover	-9563
▁1950	-9564
▁Dill	-9565
▁neur	-9566
▁stun	-9567
▁bread	-9568
▁Stuart	-9569
▁desper	-9570
▁smooth	-9571
▁rowspan	-9572
▁controlling	-9573
Art	-9574
net	-9575
Once	-9576
Read	-9577
▁Daw	-9578
istent	-9579
▁ratio	-9580
▁tower	-9581
example	-9582
▁vaccine	-9583
▁Alzheimer	-9584
▁interactions	-9585
▁Sah	-9586
break	-9587
▁Fall	-9588
▁Navy	-9589
uccess	-9590
▁Solar	-9591
▁worst	-9592
▁proven	-9593
▁Agility	-9594
▁factory	-9595
▁thereby	-9596
51	-9597
CU	-9598
IDS	-9599
▁AL	-9600
atty	-9601
imic	-9602
▁Pry	-9603
▁vide	-9604
aneous	-9605
▁Uncle	-9606
▁admin	-9607
▁tight	-9608
▁Spidey	-9609
▁cyborg	-9610
▁drives	-9611
▁preced	-9612
▁mentally	-9613
▁commander	-9614
▁featuring	-9615
▁participated	-9616
acon	-9617
cell	-9618
▁Chan	-9619
ennial	-9620
▁parad	-9621
▁blocks	-9622
▁Disease	-9623
▁catches	-9624
▁goddess	-9625
▁consumers	-9626
▁installed	-9627
iodiversity	-9628
▁initiative	-9629
▁maintained	-9630
▁considering	-9631
▁Frankenstein	-9632
▁significance	-9633
▁participation	-9634
Red	-9635
atha	-9636
geon	-9637
▁sod	-9638
March	-9639
ephew	-9640
orious	-9641
rotter	-9642
▁drops	-9643
▁warned	-9644
▁harmful	-9645
▁accuracy	-9646
▁estimate	-9647
▁historic	-9648
▁regarded	-9649
▁confidence	-9650
▁complicated	-9651
olis	-9652
▁LEG	-9653
iates	-9654
▁Clea	-9655
▁Todd	-9656
Western	-9657
ameleon	-9658
▁clothes	-9659
▁invisible	-9660
▁legislation	-9661
▁Evolutionary	-9662
▁communications	-9663
/0	-9664
BR	-9665
enh	-9666
ori	-9667
fish	-9668
idal	-9669
plete	-9670
▁fool	-9671
▁sear	-9672
powers	-9673
▁Bobby	-9674
▁wheel	-9675
▁brainw	-9676
▁dioxide	-9677
▁Mandarin	-9678
▁hypothes	-9679
▁responses	-9680
▁Asgardians	-9681
▁teleported	-9682
▁instruments	-9683
CT	-9684
yo	-9685
ika	-9686
ods	-9687
Even	-9688
irms	-9689
itamin	-9690
▁1980.	-9691
▁Crand	-9692
▁Mayer	-9693
▁Kraven	-9694
▁Langton	-9695
▁broadcast	-9696
▁indicated	-9697
▁recognition	-9698
hus	-9699
aust	-9700
ethe	-9701
text	-9702
▁Jar	-9703
being	-9704
trans	-9705
▁Year	-9706
▁Realm	-9707
▁Gifted	-9708
▁dental	-9709
▁zombie	-9710
▁forever	-9711
▁mystery	-9712
▁alliance	-9713
▁earliest	-9714
▁expanded	-9715
▁reputation	-9716
HA	-9717
?".	-9718
mod	-9719
avor	-9720
mare	-9721
▁Bow	-9722
▁Fac	-9723
▁Tit	-9724
▁bot	-9725
owder	-9726
▁mice	-9727
arents	-9728
rowing	-9729
▁Allies	-9730
▁centre	-9731
▁rebell	-9732
▁seriously	-9733
▁businesses	-9734
▁65	-9735
eign	-9736
▁advis	-9737
▁grabs	-9738
itarian	-9739
▁satisf	-9740
▁battery	-9741
▁channel	-9742
▁nervous	-9743
▁rampage	-9744
▁dinosaur	-9745
▁telepathic	-9746
-14	-9747
bius	-9748
▁Bed	-9749
anned	-9750
ductive	-9751
▁meters	-9752
chantress	-9753
▁presents	-9754
▁contacted	-9755
▁integrated	-9756
▁Helicarrier	-9757
EP	-9758
away	-9759
▁Ark	-9760
Human	-9761
▁Duke	-9762
▁mail	-9763
▁rank	-9764
▁eleph	-9765
▁ethnic	-9766
▁Finding	-9767
▁Station	-9768
▁markets	-9769
▁wedding	-9770
▁apprehen	-9771
▁energies	-9772
▁strongly	-9773
▁programming	-9774
▁architecture	-9775
roe	-9776
html	-9777
▁Kor	-9778
▁2002	-9779
▁Alicia	-9780
▁poster	-9781
▁safely	-9782
▁chromos	-9783
▁desired	-9784
▁employee	-9785
▁highlight	-9786
fly	-9787
uba	-9788
uer	-9789
▁(1	-9790
elle	-9791
uffy	-9792
▁fab	-9793
anson	-9794
▁plus	-9795
▁crown	-9796
▁overhe	-9797
▁Handbook	-9798
▁cultures	-9799
▁invention	-9800
▁positions	-9801
▁phenomenon	-9802
▁regulations	-9803
/20	-9804
Part	-9805
▁Egg	-9806
▁Neb	-9807
▁Sel	-9808
oples	-9809
▁epid	-9810
▁seat	-9811
Spider	-9812
▁opens	-9813
▁Korean	-9814
▁Perlin	-9815
▁beliefs	-9816
▁disguised	-9817
▁performing	-9818
hop	-9819
iop	-9820
asma	-9821
rien	-9822
angle	-9823
storm	-9824
strom	-9825
▁2001	-9826
▁embr	-9827
▁twin	-9828
nephew	-9829
▁Buddh	-9830
▁maybe	-9831
▁column	-9832
▁dinner	-9833
▁mirror	-9834
▁patrol	-9835
▁theore	-9836
▁revived	-9837
77	-9838
mes	-9839
▁46	-9840
▁55	-9841
▁Li	-9842
rons	-9843
ikely	-9844
▁cere	-9845
▁fest	-9846
▁Happy	-9847
▁recre	-9848
▁Contin	-9849
▁Senate	-9850
▁scream	-9851
▁arriving	-9852
▁delivery	-9853
▁detected	-9854
▁Cassandra	-9855
▁behaviour	-9856
▁settlement	-9857
Last	-9858
emed	-9859
wald	-9860
▁AND	-9861
▁Bon	-9862
▁Jam	-9863
▁Mun	-9864
asive	-9865
▁calm	-9866
▁Weekly	-9867
▁archae	-9868
▁organs	-9869
▁termin	-9870
▁coastal	-9871
▁Crandall	-9872
▁proportion	-9873
vi	-9874
aya	-9875
isa	-9876
▁Pa	-9877
eted	-9878
▁jet	-9879
▁Bomb	-9880
▁Spot	-9881
Contin	-9882
upiter	-9883
▁1,000	-9884
▁Peace	-9885
▁Quinn	-9886
▁frust	-9887
▁bullets	-9888
▁mothers	-9889
▁slavery	-9890
▁Scotland	-9891
▁membrane	-9892
▁compounds	-9893
▁replacement	-9894
Per	-9895
new	-9896
Thor	-9897
spec	-9898
▁Pul	-9899
▁sus	-9900
▁2003	-9901
▁raid	-9902
▁Polit	-9903
▁argue	-9904
▁polar	-9905
▁atomic	-9906
▁courts	-9907
▁dreams	-9908
otherapy	-9909
▁density	-9910
▁Mortimer	-9911
▁Victoria	-9912
▁employer	-9913
▁dependent	-9914
vo	-9915
imd	-9916
▁42	-9917
vard	-9918
▁Set	-9919
▁Into	-9920
▁Where	-9921
▁Cookie	-9922
▁Rhodes	-9923
▁strict	-9924
overeign	-9925
▁accused	-9926
▁Business	-9927
▁ultimate	-9928
▁maintaining	-9929
▁wip	-9930
▁Cond	-9931
▁Gard	-9932
▁adds	-9933
▁pill	-9934
inners	-9935
onders	-9936
▁Angela	-9937
▁Conquer	-9938
▁printed	-9939
▁wanting	-9940
▁executed	-9941
BS	-9942
ubs	-9943
mail	-9944
ptic	-9945
▁voc	-9946
▁trem	-9947
▁classic	-9948
▁Encyclopedia	-9949
bu	-9950
apor	-9951
▁cul	-9952
▁fed	-9953
▁exha	-9954
herent	-9955
▁2010.	-9956
▁Andru	-9957
▁burst	-9958
angered	-9959
▁athlet	-9960
▁spectrum	-9961
▁realizing	-9962
▁uncertain	-9963
▁underlying	-9964
▁distributed	-9965
86	-9966
feed	-9967
▁1940	-9968
▁Cube	-9969
achers	-9970
ealing	-9971
▁fears	-9972
▁mosqu	-9973
▁Mighty	-9974
▁behalf	-9975
aneously	-9976
▁centers	-9977
▁fortune	-9978
▁players	-9979
▁commands	-9980
boy	-9981
emony	-9982
ravel	-9983
▁Soul	-9984
▁Domin	-9985
▁Games	-9986
▁Keith	-9987
▁beach	-9988
▁conven	-9989
▁planted	-9990
▁Latveria	-9991
▁Secretary	-9992
▁breathing	-9993
▁displayed	-9994
▁resolution	-9995
Let	-9996
iek	-9997
oro	-9998
oday	-9999
orney	-10000
ureau	-10001
▁Gulf	-10002
▁inqu	-10003
formed	-10004
▁1982.	-10005
▁Akihiro	-10006
▁grounds	-10007
▁mistake	-10008
▁summary	-10009
▁universal	-10010
▁healthcare	-10011
Mon	-10012
Pre	-10013
▁Obs	-10014
assed	-10015
▁Self	-10016
▁cash	-10017
▁kiss	-10018
ogical	-10019
▁estate	-10020
sylvania	-10021
▁adequate	-10022
▁promises	-10023
▁adventures	-10024
▁instrument	-10025
▁occasionally	-10026
UN	-10027
▁Od	-10028
Star	-10029
ulty	-10030
▁cosm	-10031
▁audio	-10032
▁Disney	-10033
▁Invest	-10034
▁Talbot	-10035
▁barrier	-10036
▁females	-10037
▁approved	-10038
ua	-10039
▁*	-10040
Size	-10041
anes	-10042
eness	-10043
otten	-10044
▁Road	-10045
▁poem	-10046
▁android	-10047
▁Services	-10048
▁severely	-10049
▁literally	-10050
▁attributes	-10051
OD	-10052
olly	-10053
yles	-10054
▁Jun	-10055
▁rej	-10056
▁tie	-10057
▁Days	-10058
cience	-10059
▁helic	-10060
▁marry	-10061
▁Binder	-10062
▁senior	-10063
▁minerals	-10064
▁attractive	-10065
’.	-10066
App	-10067
archy	-10068
▁Ewing	-10069
▁flour	-10070
▁pharm	-10071
▁Eugene	-10072
▁Avenger	-10073
▁suscept	-10074
▁virtual	-10075
▁Schrotter	-10076
▁Ultimates	-10077
▁protective	-10078
mid	-10079
best	-10080
lims	-10081
▁978	-10082
video	-10083
▁Hood	-10084
▁Tomb	-10085
▁migr	-10086
▁fleet	-10087
▁Bridge	-10088
▁captive	-10089
▁confess	-10090
▁cooking	-10091
▁bullying	-10092
▁capabilities	-10093
▁professionals	-10094
Who	-10095
iov	-10096
▁2)	-10097
-120	-10098
eles	-10099
zyme	-10100
acent	-10101
oving	-10102
▁Claw	-10103
▁pron	-10104
▁wore	-10105
▁zero	-10106
adelph	-10107
▁Diane	-10108
▁coach	-10109
▁interf	-10110
▁preparing	-10111
▁measurements	-10112
▁representation	-10113
zym	-10114
▁Ess	-10115
▁Nut	-10116
▁Hors	-10117
▁slip	-10118
terior	-10119
▁1984.	-10120
▁Gates	-10121
▁drown	-10122
▁recip	-10123
▁troub	-10124
▁sevent	-10125
gression	-10126
▁Patriot	-10127
▁Psylocke	-10128
▁illusion	-10129
▁supplement	-10130
▁psychological	-10131
-30	-10132
Cle	-10133
occ	-10134
▁Ca	-10135
▁MS	-10136
▁gap	-10137
ublin	-10138
▁chart	-10139
▁gains	-10140
▁prosp	-10141
▁Dynamo	-10142
▁Henkel	-10143
▁Robbie	-10144
▁multip	-10145
▁writes	-10146
▁stating	-10147
▁sleeping	-10148
▁estimates	-10149
▁prompting	-10150
▁Celestials	-10151
▁concerning	-10152
Mo	-10153
ón	-10154
▁Ho	-10155
▁#1–	-10156
▁unt	-10157
▁Cosm	-10158
▁touc	-10159
opathy	-10160
▁plain	-10161
▁roles	-10162
▁trend	-10163
▁valid	-10164
▁wears	-10165
▁wield	-10166
▁Avison	-10167
▁bigger	-10168
▁alleged	-10169
▁confident	-10170
▁mathematics	-10171
Day	-10172
ocy	-10173
▁raw	-10174
etary	-10175
▁Arts	-10176
▁Rest	-10177
▁Cloak	-10178
▁enorm	-10179
▁wheat	-10180
adelphia	-10181
▁housing	-10182
▁Invasion	-10183
▁contamin	-10184
▁Returning	-10185
▁behaviors	-10186
▁celebrate	-10187
▁examination	-10188
Me	-10189
▁Ps	-10190
Gwen	-10191
▁Key	-10192
▁lit	-10193
▁Morl	-10194
▁bath	-10195
lected	-10196
linois	-10197
▁Still	-10198
▁chlor	-10199
▁dates	-10200
▁advert	-10201
▁invaded	-10202
▁kilomet	-10203
▁medicines	-10204
▁somewhere	-10205
avit	-10206
▁Cere	-10207
▁brut	-10208
▁stab	-10209
ployed	-10210
▁upset	-10211
▁Sandman	-10212
▁Reflexes	-10213
▁moisture	-10214
▁surfaces	-10215
▁suspicious	-10216
63	-10217
72	-10218
▁Ut	-10219
cons	-10220
iplom	-10221
ricts	-10222
▁Blob	-10223
▁luck	-10224
Christ	-10225
▁frees	-10226
▁sport	-10227
▁worry	-10228
▁Dagger	-10229
▁babies	-10230
▁beaten	-10231
▁heaven	-10232
▁calories	-10233
▁guidance	-10234
▁associate	-10235
▁greenhouse	-10236
LE	-10237
TP	-10238
ocial	-10239
▁2015	-10240
▁ties	-10241
▁persu	-10242
▁emotion	-10243
▁treating	-10244
▁attracted	-10245
hr	-10246
13)	-10247
eld	-10248
▁Aqu	-10249
▁Ped	-10250
▁Crew	-10251
▁nick	-10252
▁wars	-10253
emeter	-10254
▁Obama	-10255
▁colour	-10256
▁Felicia	-10257
▁Mystique	-10258
▁absolute	-10259
▁collapse	-10260
▁implications	-10261
11.	-10262
etle	-10263
▁Lay	-10264
▁tip	-10265
▁Juan	-10266
▁Pass	-10267
▁Wein	-10268
▁rice	-10269
▁wake	-10270
overse	-10271
▁sheet	-10272
▁careful	-10273
▁continuous	-10274
▁implementation	-10275
89	-10276
Gl	-10277
inf	-10278
====	-10279
auts	-10280
uese	-10281
▁2014	-10282
▁LEGO	-10283
▁succ	-10284
▁volt	-10285
▁Miche	-10286
▁stuff	-10287
itative	-10288
retooth	-10289
▁gaining	-10290
▁imagine	-10291
▁Illinois	-10292
▁Michigan	-10293
▁execution	-10294
▁expedition	-10295
vy	-10296
cule	-10297
ikes	-10298
made	-10299
vals	-10300
istol	-10301
onomy	-10302
▁Lock	-10303
▁cros	-10304
▁torn	-10305
▁1979.	-10306
▁arrow	-10307
chester	-10308
▁preval	-10309
▁abnormal	-10310
▁provider	-10311
▁liability	-10312
▁occurring	-10313
▁slaughter	-10314
▁genetically	-10315
▁#5	-10316
Dead	-10317
ults	-10318
▁fra	-10319
▁mur	-10320
▁Kier	-10321
▁Resp	-10322
elfare	-10323
ocated	-10324
▁allied	-10325
▁Knights	-10326
▁secrets	-10327
▁innocent	-10328
▁occupied	-10329
▁reliable	-10330
▁throwing	-10331
▁customers	-10332
▁traditions	-10333
-21	-10334
iph	-10335
–19	-10336
Lear	-10337
ixon	-10338
lint	-10339
▁gor	-10340
pling	-10341
▁2016	-10342
People	-10343
▁Point	-10344
▁angle	-10345
▁males	-10346
▁Tallar	-10347
▁abduct	-10348
▁copies	-10349
▁Jupiter	-10350
▁raising	-10351
▁unclear	-10352
▁preserve	-10353
▁thorough	-10354
▁renewable	-10355
▁dimensions	-10356
▁Administration	-10357
zo	-10358
Ret	-10359
due	-10360
airy	-10361
enda	-10362
neys	-10363
▁vow	-10364
▁Warn	-10365
▁Kasady	-10366
▁Killer	-10367
▁Marcos	-10368
▁habits	-10369
▁Midnight	-10370
▁interior	-10371
▁container	-10372
alm	-10373
rive	-10374
amine	-10375
ooter	-10376
▁Less	-10377
▁Quin	-10378
▁1981.	-10379
husband	-10380
▁Madame	-10381
▁bought	-10382
tainment	-10383
▁metabol	-10384
▁Collector	-10385
▁administer	-10386
▁researcher	-10387
▁substantial	-10388
illo	-10389
ilty	-10390
▁Lil	-10391
▁rif	-10392
▁Aval	-10393
▁Keep	-10394
▁Elder	-10395
▁Liter	-10396
▁theft	-10397
▁Busiek	-10398
▁Volume	-10399
▁merged	-10400
▁revers	-10401
▁simult	-10402
▁stayed	-10403
▁Bernard	-10404
▁tricked	-10405
▁Together	-10406
▁confusion	-10407
▁beneficial	-10408
▁spacecraft	-10409
▁Pennsylvania	-10410
▁Ax	-10411
raid	-10412
▁bid	-10413
▁les	-10414
▁Have	-10415
▁Show	-10416
▁cats	-10417
▁grid	-10418
▁beats	-10419
▁champ	-10420
▁score	-10421
abulary	-10422
auntlet	-10423
▁meteor	-10424
▁unlike	-10425
▁anywhere	-10426
▁breeding	-10427
▁screening	-10428
▁witnesses	-10429
▁identification	-10430
IG	-10431
Ham	-10432
▁#2	-10433
--?!	-10434
uits	-10435
Super	-10436
▁Code	-10437
▁wand	-10438
▁Chron	-10439
▁Limbo	-10440
▁Access	-10441
▁Roxxon	-10442
▁Sutton	-10443
▁disrupt	-10444
▁funeral	-10445
▁radical	-10446
▁robotic	-10447
▁unnamed	-10448
▁antibiot	-10449
▁invented	-10450
▁inflammation	-10451
Mod	-10452
eli	-10453
▁Non	-10454
▁gro	-10455
▁rab	-10456
raged	-10457
▁Bear	-10458
▁Brun	-10459
▁Main	-10460
▁Camer	-10461
▁Sleep	-10462
▁chaos	-10463
ulatory	-10464
▁shaped	-10465
▁anticip	-10466
▁examined	-10467
▁Invisible	-10468
▁committee	-10469
▁opponents	-10470
▁contributed	-10471
des	-10472
raq	-10473
King	-10474
rics	-10475
iture	-10476
▁2017	-10477
▁vows	-10478
▁Small	-10479
Hawkeye	-10480
▁Modern	-10481
▁curren	-10482
▁losses	-10483
▁Islands	-10484
▁purchased	-10485
▁unrevealed	-10486
▁Conservation	-10487
▁>	-10488
gian	-10489
▁rage	-10490
iating	-10491
▁Brant	-10492
▁Fabian	-10493
▁asthma	-10494
▁Vincent	-10495
▁Multiverse	-10496
▁categories	-10497
▁Dw	-10498
ilee	-10499
uled	-10500
April	-10501
chond	-10502
▁Kirk	-10503
▁beam	-10504
biotes	-10505
▁Foggy	-10506
▁Helen	-10507
▁Works	-10508
▁artif	-10509
▁imper	-10510
Because	-10511
▁finger	-10512
▁plenty	-10513
aughters	-10514
expected	-10515
▁Several	-10516
▁viruses	-10517
▁everyday	-10518
▁portrays	-10519
▁suspended	-10520
▁Philadelphia	-10521
▁Mj	-10522
acre	-10523
just	-10524
▁Dur	-10525
▁tack	-10526
▁Saint	-10527
▁prime	-10528
▁Dillon	-10529
▁phosph	-10530
▁concrete	-10531
▁costumed	-10532
▁evaluation	-10533
God	-10534
cul	-10535
Next	-10536
ieve	-10537
lyss	-10538
pled	-10539
olnir	-10540
▁Hela	-10541
▁foes	-10542
▁Right	-10543
▁Scorp	-10544
▁clock	-10545
hifting	-10546
▁Ernest	-10547
▁notion	-10548
itochond	-10549
▁Climate	-10550
▁creator	-10551
▁mixture	-10552
▁Absorbing	-10553
gam	-10554
rat	-10555
lord	-10556
▁Mak	-10557
▁Cort	-10558
▁Else	-10559
▁fold	-10560
▁transp	-10561
Following	-10562
roduction	-10563
▁dramatic	-10564
▁feedback	-10565
▁accessible	-10566
CR	-10567
▁44	-10568
▁Der	-10569
▁Ech	-10570
hythm	-10571
▁clar	-10572
▁ease	-10573
▁tatt	-10574
embers	-10575
▁genius	-10576
▁mantle	-10577
▁mortal	-10578
▁mystic	-10579
▁Barbara	-10580
▁Decarlo	-10581
▁Wildlife	-10582
▁enabling	-10583
▁converted	-10584
▁inherited	-10585
▁Resistance	-10586
▁introduces	-10587
▁regardless	-10588
▁challenging	-10589
▁complications	-10590
oos	-10591
▁Ly	-10592
ille	-10593
ippi	-10594
itals	-10595
▁pros	-10596
▁Ellis	-10597
▁Lloyd	-10598
▁holes	-10599
▁skull	-10600
▁threw	-10601
▁Philip	-10602
▁Please	-10603
▁client	-10604
▁cybern	-10605
▁Goodwin	-10606
▁retired	-10607
▁Confeder	-10608
▁ceremony	-10609
▁psychiat	-10610
▁perceived	-10611
▁personally	-10612
▁improvement	-10613
▁ingredients	-10614
▁AP	-10615
▁Low	-10616
Every	-10617
regon	-10618
▁Band	-10619
▁rect	-10620
▁rely	-10621
lessly	-10622
▁dimin	-10623
▁Morrow	-10624
▁viewed	-10625
ologically	-10626
▁addressed	-10627
▁chemistry	-10628
wan	-10629
case	-10630
▁Isa	-10631
▁tanks	-10632
adiator	-10633
▁Worlds	-10634
▁betray	-10635
▁colspan	-10636
▁focuses	-10637
iological	-10638
▁peaceful	-10639
▁communist	-10640
▁intelligent	-10641
▁preparation	-10642
▁interpretation	-10643
5%	-10644
bow	-10645
rah	-10646
Your	-10647
▁120	-10648
▁Equ	-10649
▁Gam	-10650
▁Had	-10651
▁Taa	-10652
acker	-10653
▁2012,	-10654
▁Alice	-10655
▁Sharon	-10656
▁proves	-10657
▁throws	-10658
▁wounds	-10659
▁unlikely	-10660
▁variable	-10661
▁executive	-10662
▁sentences	-10663
▁effectiveness	-10664
▁representative	-10665
chi	-10666
uum	-10667
ouri	-10668
▁Ald	-10669
▁dys	-10670
aints	-10671
estro	-10672
tered	-10673
▁1930	-10674
origin	-10675
inating	-10676
▁Alchem	-10677
▁Justin	-10678
▁Enchantress	-10679
▁supervillain	-10680
▁automatically	-10681
64	-10682
run	-10683
▁AM	-10684
▁Mi	-10685
asta	-10686
Today	-10687
Where	-10688
adder	-10689
▁Fund	-10690
▁diam	-10691
▁horn	-10692
▁Ident	-10693
▁Arnold	-10694
▁twelve	-10695
▁Mjolnir	-10696
▁Vampire	-10697
▁removal	-10698
▁directions	-10699
▁ton	-10700
aways	-10701
▁hits	-10702
▁Hardy	-10703
▁fiber	-10704
▁queen	-10705
▁walks	-10706
▁Change	-10707
▁Online	-10708
▁Search	-10709
▁shares	-10710
▁malaria	-10711
▁missile	-10712
▁offices	-10713
▁spirits	-10714
▁Language	-10715
▁aesthetic	-10716
▁gathering	-10717
▁Sabretooth	-10718
ña	-10719
eis	-10720
iko	-10721
▁MP	-10722
="2"	-10723
▁Fen	-10724
▁liv	-10725
David	-10726
ieval	-10727
ouses	-10728
▁Hans	-10729
▁buff	-10730
rating	-10731
ricane	-10732
▁Cobra	-10733
▁divor	-10734
▁Beyond	-10735
▁golden	-10736
▁Gibbons	-10737
▁darkness	-10738
▁romantic	-10739
▁Sometimes	-10740
▁distracted	-10741
▁statements	-10742
▁Da	-10743
▁Gru	-10744
▁bag	-10745
▁lob	-10746
▁mit	-10747
ounty	-10748
▁Hann	-10749
making	-10750
ulsion	-10751
▁Hudson	-10752
▁argued	-10753
▁harder	-10754
▁amazing	-10755
▁Eternity	-10756
▁admitted	-10757
▁equipped	-10758
▁evaluate	-10759
▁tropical	-10760
▁excessive	-10761
▁lifestyle	-10762
▁reporting	-10763
HI	-10764
OP	-10765
Cal	-10766
▁43	-10767
▁ov	-10768
disc	-10769
erts	-10770
nell	-10771
rant	-10772
rene	-10773
▁dub	-10774
ayers	-10775
immer	-10776
utely	-10777
▁Fish	-10778
▁hung	-10779
ounced	-10780
▁alarm	-10781
▁fifth	-10782
▁Marine	-10783
▁errors	-10784
▁headed	-10785
▁oldest	-10786
▁Edition	-10787
▁Illumin	-10788
▁restaur	-10789
▁Godzilla	-10790
▁arranged	-10791
▁category	-10792
▁explicit	-10793
▁literary	-10794
▁Commander	-10795
▁Tallarico	-10796
▁enforcement	-10797
aic	-10798
asha	-10799
▁Take	-10800
isting	-10801
▁Creek	-10802
▁Crown	-10803
▁hence	-10804
▁Wraith	-10805
▁dating	-10806
▁deeply	-10807
▁guilty	-10808
▁Systems	-10809
▁peoples	-10810
▁membership	-10811
▁perception	-10812
-94	-10813
12)	-10814
▁Ur	-10815
▁31,	-10816
▁Oil	-10817
letus	-10818
rooms	-10819
▁lens	-10820
▁prox	-10821
ynasty	-10822
▁aimed	-10823
Charles	-10824
century	-10825
illiant	-10826
issippi	-10827
▁Greece	-10828
▁Maraud	-10829
▁explor	-10830
▁frozen	-10831
▁profit	-10832
▁shadow	-10833
▁cooling	-10834
▁imperson	-10835
▁striking	-10836
▁vertical	-10837
▁whenever	-10838
▁Community	-10839
▁elections	-10840
▁suspected	-10841
▁volunteers	-10842
▁Furthermore	-10843
▁contribution	-10844
asis	-10845
othy	-10846
ouds	-10847
▁Dal	-10848
Ghost	-10849
▁Area	-10850
▁Laura	-10851
▁decor	-10852
▁songs	-10853
istical	-10854
▁Bureau	-10855
▁Harris	-10856
▁clones	-10857
▁pushed	-10858
▁stores	-10859
▁submar	-10860
enerative	-10861
▁Superior	-10862
▁focusing	-10863
▁references	-10864
▁}	-10865
▁Ts	-10866
▁Daim	-10867
▁Khan	-10868
▁Vance	-10869
▁loses	-10870
▁wound	-10871
iblical	-10872
▁colony	-10873
▁incapac	-10874
▁martial	-10875
▁observe	-10876
icksilver	-10877
▁criteria	-10878
▁heritage	-10879
▁settlers	-10880
▁listening	-10881
▁variation	-10882
▁Convention	-10883
-22	-10884
cro	-10885
ogg	-10886
aris	-10887
ythe	-10888
▁Beh	-10889
▁Hale	-10890
▁evac	-10891
kinesis	-10892
▁funded	-10893
▁lawyer	-10894
▁recept	-10895
▁convert	-10896
▁Invaders	-10897
▁Isabella	-10898
▁nitrogen	-10899
▁withdraw	-10900
▁industries	-10901
▁occupation	-10902
▁sacrificed	-10903
Inc	-10904
zan	-10905
creat	-10906
onger	-10907
uties	-10908
▁Bunn	-10909
▁Earl	-10910
▁unem	-10911
August	-10912
Babies	-10913
thetic	-10914
uction	-10915
▁array	-10916
▁lymph	-10917
▁Alaska	-10918
▁circus	-10919
▁landed	-10920
▁Current	-10921
▁Islamic	-10922
▁Jennifer	-10923
▁adventure	-10924
▁explosives	-10925
Hen	-10926
▁ol	-10927
dell	-10928
iked	-10929
▁Lem	-10930
inery	-10931
overy	-10932
▁Kyle	-10933
▁unst	-10934
Donald	-10935
▁Moira	-10936
▁uncom	-10937
▁Adrian	-10938
▁Arcade	-10939
▁Finger	-10940
▁infect	-10941
▁labour	-10942
▁paying	-10943
▁throat	-10944
▁versus	-10945
▁smoking	-10946
▁destruct	-10947
▁entrance	-10948
▁exploring	-10949
▁substances	-10950
oner	-10951
yram	-10952
▁Enh	-10953
thesis	-10954
▁mouse	-10955
▁reven	-10956
▁storms	-10957
▁Mexican	-10958
▁heading	-10959
▁emphasis	-10960
▁intensity	-10961
▁spreading	-10962
oop	-10963
Alex	-10964
umph	-10965
▁Cas	-10966
▁Dru	-10967
igate	-10968
oding	-10969
orith	-10970
rafts	-10971
usive	-10972
▁Fact	-10973
▁Wend	-10974
▁sale	-10975
▁wage	-10976
▁Potts	-10977
▁thank	-10978
▁Berlin	-10979
▁Jackal	-10980
▁Sunday	-10981
▁videos	-10982
▁Reading	-10983
▁reclaim	-10984
▁consumer	-10985
▁Conqueror	-10986
▁intercept	-10987
▁narrative	-10988
▁objective	-10989
▁commitment	-10990
GB	-10991
Add	-10992
tha	-10993
▁ye	-10994
also	-10995
▁Hem	-10996
▁mud	-10997
▁nom	-10998
▁Prom	-10999
▁Ruth	-11000
▁tact	-11001
spring	-11002
▁Princ	-11003
▁farms	-11004
▁irrig	-11005
▁wooden	-11006
▁accepts	-11007
▁athlete	-11008
▁package	-11009
▁Official	-11010
▁develops	-11011
▁capturing	-11012
▁Portuguese	-11013
▁punishment	-11014
▁unexpected	-11015
▁transforming	-11016
Just	-11017
Neil	-11018
▁Typ	-11019
▁Boom	-11020
▁Cell	-11021
▁Zero	-11022
▁aims	-11023
▁lets	-11024
▁libr	-11025
▁nest	-11026
▁trio	-11027
▁Going	-11028
▁Holly	-11029
▁roads	-11030
▁tough	-11031
▁Oregon	-11032
▁reserv	-11033
▁compare	-11034
▁conserv	-11035
▁hormone	-11036
▁exploration	-11037
▁supplements	-11038
▁difficulties	-11039
df	-11040
▁asc	-11041
-9213	-11042
▁Sing	-11043
vation	-11044
▁Evans	-11045
itating	-11046
▁Person	-11047
ediatric	-11048
▁engines	-11049
▁quantum	-11050
▁Immortal	-11051
▁betrayed	-11052
▁indigenous	-11053
▁civilization	-11054
DF	-11055
19)	-11056
▁39	-11057
Like	-11058
▁aug	-11059
▁1999	-11060
asters	-11061
▁cryst	-11062
emetery	-11063
▁Carson	-11064
▁Friday	-11065
▁Medusa	-11066
▁perpet	-11067
▁mirrors	-11068
▁treasure	-11069
▁extension	-11070
▁Taskmaster	-11071
▁discovering	-11072
▁manipulated	-11073
▁recommendations	-11074
ede	-11075
activ	-11076
▁prey	-11077
▁alias	-11078
▁steam	-11079
▁thirty	-11080
▁evident	-11081
▁profile	-11082
▁windows	-11083
▁moderate	-11084
▁reflects	-11085
▁stations	-11086
▁empowered	-11087
▁helicopter	-11088
▁registered	-11089
▁approaching	-11090
▁illustrated	-11091
▁collaboration	-11092
opt	-11093
▁AS	-11094
▁mm	-11095
burn	-11096
▁Lam	-11097
adeus	-11098
class	-11099
inned	-11100
▁Dawn	-11101
▁Quar	-11102
▁hill	-11103
▁lord	-11104
▁disin	-11105
▁enfor	-11106
▁Dublin	-11107
▁musical	-11108
▁Advanced	-11109
▁Simonson	-11110
▁emerging	-11111
▁province	-11112
▁crossover	-11113
▁collecting	-11114
LC	-11115
▁Gw	-11116
▁Sit	-11117
▁ash	-11118
▁drew	-11119
▁pest	-11120
▁ware	-11121
▁Steel	-11122
▁smugg	-11123
agnetic	-11124
irlwind	-11125
▁Mechan	-11126
▁debris	-11127
▁interm	-11128
▁sacred	-11129
iversary	-11130
▁Clinton	-11131
▁dominant	-11132
▁entitled	-11133
▁decreased	-11134
▁fet	-11135
owned	-11136
▁Host	-11137
jacket	-11138
▁Avoid	-11139
holders	-11140
taining	-11141
▁whales	-11142
atherine	-11143
▁Biology	-11144
▁enormous	-11145
▁detection	-11146
▁unsuccess	-11147
▁statistics	-11148
▁Quicksilver	-11149
▁identifying	-11150
▁interactive	-11151
▁counterparts	-11152
%.	-11153
Out	-11154
▁EU	-11155
▁Gh	-11156
itzer	-11157
▁Karn	-11158
▁bees	-11159
▁pays	-11160
▁subt	-11161
Figure	-11162
▁lunch	-11163
▁stuck	-11164
itivity	-11165
▁Samson	-11166
▁handed	-11167
▁Muslims	-11168
▁demonic	-11169
▁painted	-11170
▁servant	-11171
▁Barbarian	-11172
▁districts	-11173
▁Laboratory	-11174
▁suggesting	-11175
ek	-11176
box	-11177
▁10.	-11178
▁gay	-11179
ilder	-11180
▁ampl	-11181
▁cuts	-11182
Heroes	-11183
ulator	-11184
▁Levin	-11185
▁jumps	-11186
▁Garden	-11187
▁attach	-11188
▁dispat	-11189
▁toxins	-11190
▁promising	-11191
▁qualities	-11192
▁underwater	-11193
▁Mississippi	-11194
Sl	-11195
TV	-11196
cr	-11197
-11	-11198
okyo	-11199
▁alb	-11200
annon	-11201
ensed	-11202
front	-11203
▁mere	-11204
▁aided	-11205
▁breed	-11206
▁lists	-11207
▁witch	-11208
Matteis	-11209
instein	-11210
▁Strike	-11211
▁Torres	-11212
▁hazard	-11213
ordinary	-11214
▁Kitchen	-11215
▁substit	-11216
▁Facebook	-11217
▁assignment	-11218
▁functional	-11219
▁observation	-11220
▁accomplished	-11221
▁consideration	-11222
10)	-11223
12.	-11224
▁Fig	-11225
▁Hur	-11226
▁Pep	-11227
▁Sif	-11228
▁mun	-11229
▁surg	-11230
essing	-11231
▁beast	-11232
▁eaten	-11233
▁Jarvis	-11234
▁Method	-11235
▁palace	-11236
▁Connect	-11237
▁Lazarus	-11238
▁crashed	-11239
▁Moreover	-11240
▁villages	-11241
▁Chameleon	-11242
▁DeMatteis	-11243
▁withstand	-11244
irus	-11245
oust	-11246
▁nep	-11247
itory	-11248
▁Cult	-11249
▁Sher	-11250
▁buck	-11251
oliath	-11252
uclear	-11253
usalem	-11254
▁Trask	-11255
elihood	-11256
▁Saturn	-11257
▁Valent	-11258
▁speaks	-11259
▁Howling	-11260
▁founder	-11261
▁swimming	-11262
▁partially	-11263
▁preferred	-11264
▁aggressive	-11265
▁commanding	-11266
▁passengers	-11267
▁photographs	-11268
UT	-11269
iege	-11270
ripp	-11271
uels	-11272
▁Brig	-11273
▁caps	-11274
▁fake	-11275
▁Engle	-11276
▁Marko	-11277
▁cited	-11278
▁talks	-11279
▁Direct	-11280
▁insane	-11281
▁pursue	-11282
▁tables	-11283
▁exhibit	-11284
▁Princess	-11285
▁download	-11286
▁introduce	-11287
▁Dictionary	-11288
▁restrictions	-11289
87	-11290
▁47	-11291
▁(17	-11292
▁Log	-11293
▁doi	-11294
▁vot	-11295
uzzle	-11296
▁ranc	-11297
▁worn	-11298
▁Lewis	-11299
▁Wanda	-11300
▁Wolfe	-11301
▁flows	-11302
▁Dawson	-11303
▁Gorgon	-11304
▁earned	-11305
▁herald	-11306
▁summon	-11307
▁updated	-11308
▁cleaning	-11309
▁demanded	-11310
▁demanding	-11311
▁deficiency	-11312
▁characterized	-11313
▁Dug	-11314
▁Was	-11315
▁Cart	-11316
▁Past	-11317
▁Sens	-11318
▁flew	-11319
▁pipe	-11320
▁Sanct	-11321
▁Start	-11322
▁rings	-11323
▁lowest	-11324
▁pencil	-11325
▁Section	-11326
▁disturb	-11327
▁farming	-11328
▁wonders	-11329
▁Missouri	-11330
▁correctly	-11331
▁radioactive	-11332
ti	-11333
lan	-11334
ski	-11335
yard	-11336
▁(1)	-11337
Under	-11338
World	-11339
ifier	-11340
orted	-11341
▁Clan	-11342
▁item	-11343
▁lion	-11344
▁rust	-11345
▁2011.	-11346
▁abdom	-11347
▁hoped	-11348
▁panic	-11349
▁reass	-11350
utenant	-11351
▁communic	-11352
▁translation	-11353
ji	-11354
Fin	-11355
ught	-11356
▁Kin	-11357
▁Bron	-11358
▁Snow	-11359
▁lock	-11360
▁tube	-11361
arling	-11362
cousin	-11363
▁Month	-11364
▁Salem	-11365
▁cheap	-11366
▁nephew	-11367
▁acquire	-11368
▁Independ	-11369
▁episodes	-11370
▁Prevention	-11371
▁Og	-11372
▁SS	-11373
|#1–	-11374
▁Fag	-11375
▁enl	-11376
▁Costa	-11377
▁Hawai	-11378
▁proud	-11379
▁souls	-11380
▁Angelo	-11381
▁Eisner	-11382
▁accord	-11383
▁enzyme	-11384
▁export	-11385
▁prophe	-11386
ographer	-11387
▁payment	-11388
▁removing	-11389
ographical	-11390
▁exercises	-11391
AA	-11392
Mr	-11393
di	-11394
-25	-11395
Ann	-11396
elg	-11397
amon	-11398
beat	-11399
ello	-11400
grom	-11401
stad	-11402
▁vel	-11403
-1312	-11404
ceans	-11405
ochem	-11406
ucose	-11407
▁Iraq	-11408
▁Need	-11409
▁soph	-11410
▁Antar	-11411
▁Bache	-11412
▁reads	-11413
October	-11414
▁chased	-11415
▁denied	-11416
▁strain	-11417
▁hunters	-11418
echnology	-11419
▁actively	-11420
▁opponent	-11421
▁scenario	-11422
▁surround	-11423
▁personnel	-11424
▁celebrated	-11425
▁functioning	-11426
asm	-11427
gus	-11428
uri	-11429
▁Eb	-11430
Geor	-11431
▁Ali	-11432
▁Ask	-11433
▁meth	-11434
▁nice	-11435
▁acted	-11436
▁lying	-11437
istence	-11438
▁Palmer	-11439
▁Prison	-11440
▁adoles	-11441
▁permit	-11442
▁retire	-11443
▁traits	-11444
December	-11445
Galactus	-11446
▁Senator	-11447
▁essence	-11448
amination	-11449
fessional	-11450
▁exploded	-11451
▁affecting	-11452
Get	-11453
▁8.	-11454
▁Han	-11455
asket	-11456
ordan	-11457
white	-11458
▁Rice	-11459
▁Skin	-11460
▁Ward	-11461
ealous	-11462
ishers	-11463
▁acute	-11464
▁gases	-11465
▁League	-11466
▁spoken	-11467
▁enjoyed	-11468
▁prolong	-11469
▁Mysterio	-11470
▁humanoid	-11471
▁ownership	-11472
▁transforms	-11473
▁establishment	-11474
▁ft	-11475
dest	-11476
otal	-11477
step	-11478
▁lip	-11479
About	-11480
embly	-11481
group	-11482
▁Mond	-11483
▁argu	-11484
▁tens	-11485
commun	-11486
imdall	-11487
▁Karen	-11488
▁Third	-11489
▁ranks	-11490
▁rises	-11491
▁teamed	-11492
▁Whitney	-11493
▁contest	-11494
▁devoted	-11495
▁freeing	-11496
▁worried	-11497
▁advances	-11498
▁prevents	-11499
▁reserved	-11500
▁reunited	-11501
▁Youngsters	-11502
TA	-11503
onge	-11504
▁Bey	-11505
▁urg	-11506
Harry	-11507
ipher	-11508
yself	-11509
▁carn	-11510
▁fert	-11511
iments	-11512
urable	-11513
▁Pract	-11514
▁Reign	-11515
▁Sahle	-11516
▁draws	-11517
▁hardy	-11518
▁fabric	-11519
▁phrase	-11520
▁tasked	-11521
▁dialogue	-11522
▁unleashed	-11523
▁implemented	-11524
▁disabilities	-11525
▁assassination	-11526
Pr	-11527
▁#3	-11528
▁PC	-11529
-911	-11530
ouch	-11531
▁bay	-11532
▁hang	-11533
▁blank	-11534
▁tired	-11535
▁Curtis	-11536
▁Mickey	-11537
▁overth	-11538
▁Friends	-11539
▁heating	-11540
▁Alchemax	-11541
▁interface	-11542
▁Parliament	-11543
hin	-11544
uda	-11545
▁Ide	-11546
arded	-11547
▁Phot	-11548
▁Swed	-11549
▁chap	-11550
▁rope	-11551
alking	-11552
bestos	-11553
iosity	-11554
▁Moses	-11555
▁Table	-11556
▁amino	-11557
▁grain	-11558
▁guise	-11559
▁legit	-11560
▁nurse	-11561
▁ruins	-11562
▁explode	-11563
▁watches	-11564
▁minister	-11565
▁mistaken	-11566
▁brilliant	-11567
HS	-11568
lu	-11569
▁ID	-11570
▁Gut	-11571
▁Pay	-11572
endar	-11573
▁tone	-11574
ranium	-11575
▁Klaus	-11576
▁sabot	-11577
issance	-11578
▁Pepper	-11579
▁barely	-11580
▁copper	-11581
▁legacy	-11582
▁steals	-11583
▁Contest	-11584
▁crystal	-11585
▁Maryland	-11586
ordination	-11587
▁rebellion	-11588
▁considerably	-11589
!”	-11590
itri	-11591
▁Tro	-11592
Early	-11593
zymes	-11594
▁Does	-11595
▁Minn	-11596
▁Amazon	-11597
▁Blonde	-11598
▁Survey	-11599
▁anyway	-11600
▁borrow	-11601
▁Milgrom	-11602
▁dynamic	-11603
▁failing	-11604
▁fiction	-11605
▁ranging	-11606
▁routine	-11607
▁zombies	-11608
▁algorith	-11609
▁governor	-11610
▁engineers	-11611
▁reflected	-11612
▁classified	-11613
▁contributions	-11614
▁concentrations	-11615
’,	-11616
Ult	-11617
sex	-11618
▁Cru	-11619
▁Sac	-11620
▁Cold	-11621
▁Emil	-11622
▁oxid	-11623
enwald	-11624
goblin	-11625
▁2010,	-11626
▁Large	-11627
▁Seven	-11628
▁irrit	-11629
essions	-11630
▁Zombie	-11631
▁panels	-11632
▁racial	-11633
▁Studios	-11634
▁utility	-11635
▁reasonable	-11636
▁structural	-11637
▁circulation	-11638
85	-11639
Cy	-11640
aval	-11641
ieth	-11642
ieza	-11643
oler	-11644
ques	-11645
▁Von	-11646
▁Farm	-11647
▁Kare	-11648
▁Line	-11649
▁enlar	-11650
▁resid	-11651
▁swall	-11652
▁Samuel	-11653
▁cotton	-11654
▁enthus	-11655
▁serial	-11656
▁insight	-11657
▁voltage	-11658
▁cellular	-11659
▁shoulder	-11660
▁Testament	-11661
▁democracy	-11662
▁providers	-11663
wid	-11664
▁3-	-11665
▁ul	-11666
Back	-11667
expl	-11668
ourn	-11669
▁Cad	-11670
▁Ott	-11671
▁cit	-11672
▁sum	-11673
encer	-11674
▁Evan	-11675
▁Poss	-11676
▁mold	-11677
▁perm	-11678
emesis	-11679
ranean	-11680
ubilee	-11681
▁Enfor	-11682
▁Trade	-11683
▁deton	-11684
▁hench	-11685
▁Centre	-11686
▁Joshua	-11687
▁Murder	-11688
▁Drucker	-11689
▁Nicieza	-11690
▁diameter	-11691
▁Englehart	-11692
▁acknowled	-11693
▁consuming	-11694
▁publisher	-11695
▁ecological	-11696
67	-11697
gue	-11698
▁Ka	-11699
andy	-11700
soft	-11701
rints	-11702
▁gent	-11703
▁holy	-11704
ieving	-11705
iously	-11706
urches	-11707
▁Cyber	-11708
▁Known	-11709
▁Patsy	-11710
▁cable	-11711
▁immigr	-11712
▁ruling	-11713
▁enabled	-11714
▁Brothers	-11715
▁habitats	-11716
▁remarkable	-11717
▁Engineering	-11718
▁universities	-11719
MX	-11720
uh	-11721
-95	-11722
Rep	-11723
erk	-11724
hea	-11725
atar	-11726
▁Hub	-11727
▁Ned	-11728
▁Try	-11729
iraud	-11730
reted	-11731
▁Ball	-11732
▁blade	-11733
▁blows	-11734
▁haven	-11735
▁pione	-11736
▁snake	-11737
▁woods	-11738
▁advers	-11739
▁saloon	-11740
▁colonies	-11741
▁contents	-11742
▁variables	-11743
▁officially	-11744
FS	-11745
RS	-11746
Fire	-11747
neum	-11748
▁Les	-11749
Class	-11750
oodoo	-11751
▁Bast	-11752
▁Annie	-11753
▁Duffy	-11754
▁coinc	-11755
▁paths	-11756
▁Kansas	-11757
▁Namora	-11758
▁Oscorp	-11759
▁Shapes	-11760
▁nutrit	-11761
▁Indones	-11762
▁Shortly	-11763
▁distances	-11764
▁happiness	-11765
▁adaptation	-11766
▁Billingsley	-11767
▁establishing	-11768
Carn	-11769
Nove	-11770
cour	-11771
fold	-11772
lude	-11773
▁DeZ	-11774
▁Nev	-11775
thood	-11776
▁Bird	-11777
▁Cain	-11778
▁gamb	-11779
ington	-11780
▁Kings	-11781
▁Worth	-11782
▁hosts	-11783
through	-11784
▁Fagaly	-11785
▁Inside	-11786
▁Veitch	-11787
ondragon	-11788
▁Morbius	-11789
▁appoint	-11790
▁cancers	-11791
▁citizen	-11792
▁mammals	-11793
▁protest	-11794
▁Harkness	-11795
▁deposits	-11796
▁transmit	-11797
▁Mountains	-11798
▁candidate	-11799
▁expertise	-11800
▁magnitude	-11801
▁recording	-11802
▁repeatedly	-11803
isd	-11804
phan	-11805
▁Aud	-11806
Brien	-11807
riest	-11808
▁1000	-11809
▁Open	-11810
▁disk	-11811
ricted	-11812
▁Claws	-11813
▁Click	-11814
▁Media	-11815
▁globe	-11816
▁posts	-11817
▁Cannon	-11818
▁Dakota	-11819
▁afraid	-11820
▁brains	-11821
▁horror	-11822
November	-11823
ublished	-11824
▁Bradley	-11825
▁Gregory	-11826
▁Watcher	-11827
▁conflic	-11828
▁holiday	-11829
▁insulin	-11830
▁neurons	-11831
▁reduces	-11832
▁Marshall	-11833
▁descript	-11834
▁immortal	-11835
▁Frederick	-11836
▁Gruenwald	-11837
▁mitochond	-11838
▁recognizes	-11839
▁translated	-11840
▁CEO	-11841
▁Hon	-11842
▁Wor	-11843
abled	-11844
opard	-11845
ython	-11846
▁1920	-11847
▁pose	-11848
▁bombs	-11849
▁codes	-11850
▁spons	-11851
▁stumb	-11852
onymous	-11853
▁Darwin	-11854
▁Travel	-11855
▁guests	-11856
▁posing	-11857
▁wisdom	-11858
restrial	-11859
▁Sheriff	-11860
▁license	-11861
▁natives	-11862
▁friendly	-11863
▁interrog	-11864
▁particle	-11865
▁Jerusalem	-11866
▁secretary	-11867
▁newspapers	-11868
▁representing	-11869
▁characteristic	-11870
iga	-11871
iva	-11872
▁4:	-11873
▁Kub	-11874
▁MiG	-11875
▁bod	-11876
Henry	-11877
ulous	-11878
▁inev	-11879
Scient	-11880
▁restr	-11881
ailable	-11882
brother	-11883
▁poetry	-11884
▁stabil	-11885
▁worthy	-11886
▁Gargoyle	-11887
▁discharge	-11888
▁challenged	-11889
],	-11890
án	-11891
rez	-11892
▁Na	-11893
▁Ow	-11894
Fran	-11895
etti	-11896
▁1998	-11897
▁Dale	-11898
▁None	-11899
▁coat	-11900
▁dent	-11901
ateral	-11902
▁Magic	-11903
▁alert	-11904
▁disag	-11905
▁posse	-11906
▁punch	-11907
▁slain	-11908
▁thugs	-11909
▁wrest	-11910
ilation	-11911
western	-11912
▁Indeed	-11913
▁buying	-11914
▁abandon	-11915
▁chicken	-11916
▁welfare	-11917
▁sediment	-11918
▁settings	-11919
▁Steinberg	-11920
▁sovereign	-11921
▁Illuminati	-11922
▁atmospheric	-11923
CE	-11924
.).	-11925
Sub	-11926
aman	-11927
bage	-11928
chem	-11929
iggs	-11930
▁Ares	-11931
▁Marg	-11932
▁cann	-11933
▁clay	-11934
icular	-11935
igious	-11936
▁2007,	-11937
▁Sumer	-11938
▁shots	-11939
▁arrows	-11940
▁bottle	-11941
▁trends	-11942
▁agility	-11943
esticides	-11944
▁Assassin	-11945
▁Ministry	-11946
▁indirect	-11947
▁prepares	-11948
▁priority	-11949
lah	-11950
was	-11951
:10.	-11952
Time	-11953
iors	-11954
ttps	-11955
icity	-11956
redit	-11957
▁Hein	-11958
▁pink	-11959
gments	-11960
▁Arrow	-11961
▁Square	-11962
▁correl	-11963
▁respir	-11964
▁Challen	-11965
▁Hearing	-11966
▁amongst	-11967
▁deliber	-11968
▁Electric	-11969
▁representatives	-11970
Cons	-11971
date	-11972
olit	-11973
▁vag	-11974
igail	-11975
▁Gran	-11976
▁Lobo	-11977
▁Pict	-11978
▁Play	-11979
▁fans	-11980
inging	-11981
olving	-11982
▁1956.	-11983
▁Blind	-11984
▁Diego	-11985
▁Pryde	-11986
▁schem	-11987
▁diplom	-11988
▁planes	-11989
▁Counter	-11990
▁harvest	-11991
▁Cambridge	-11992
▁companion	-11993
▁mutations	-11994
▁accomplish	-11995
▁interventions	-11996
vro	-11997
-928	-11998
rait	-11999
▁Fon	-12000
▁bol	-12001
▁Bang	-12002
▁Crit	-12003
▁Stry	-12004
▁meals	-12005
▁plague	-12006
▁powder	-12007
▁Defense	-12008
▁inherit	-12009
▁Standard	-12010
▁basically	-12011
▁employers	-12012
▁specified	-12013
▁Conference	-12014
▁endangered	-12015
▁supposedly	-12016
▁interference	-12017
Bar	-12018
add	-12019
▁kin	-12020
amins	-12021
esota	-12022
rolls	-12023
uther	-12024
▁Zeal	-12025
prises	-12026
▁1955.	-12027
▁1972.	-12028
▁Mordo	-12029
▁doors	-12030
▁mature	-12031
▁pupils	-12032
▁scales	-12033
▁totally	-12034
September	-12035
▁Analysis	-12036
▁Gauntlet	-12037
▁managing	-12038
▁incredible	-12039
▁experiencing	-12040
82	-12041
CA	-12042
py	-12043
23)	-12044
domin	-12045
ritis	-12046
▁Cole	-12047
▁Jose	-12048
▁Type	-12049
▁painful	-12050
▁handling	-12051
▁interfer	-12052
▁releases	-12053
▁sciences	-12054
▁Protection	-12055
▁corruption	-12056
▁permanently	-12057
VD	-12058
Comb	-12059
fare	-12060
iser	-12061
casts	-12062
prise	-12063
▁Mojo	-12064
▁incl	-12065
▁vice	-12066
George	-12067
rolled	-12068
▁Issue	-12069
▁lungs	-12070
▁tract	-12071
▁nobody	-12072
▁walked	-12073
▁Genesis	-12074
▁privile	-12075
▁abstract	-12076
▁collective	-12077
▁improvements	-12078
jo	-12079
uz	-12080
Bro	-12081
usk	-12082
▁#6	-12083
▁cm	-12084
-610	-12085
fast	-12086
oria	-12087
▁Bio	-12088
▁hal	-12089
▁mes	-12090
width	-12091
▁Delt	-12092
▁rept	-12093
andral	-12094
aunted	-12095
▁laugh	-12096
iblings	-12097
▁Cletus	-12098
▁Giraud	-12099
▁kidnap	-12100
▁affairs	-12101
▁armored	-12102
▁)	-12103
Bay	-12104
hee	-12105
ilst	-12106
-928)	-12107
Child	-12108
alion	-12109
iants	-12110
▁Camb	-12111
▁hosp	-12112
▁loot	-12113
▁tomb	-12114
▁wine	-12115
oppelg	-12116
▁Urich	-12117
▁neuro	-12118
▁wreck	-12119
▁Shield	-12120
▁extens	-12121
▁vector	-12122
▁voices	-12123
▁Amadeus	-12124
▁letting	-12125
▁streams	-12126
▁Military	-12127
▁learners	-12128
▁temporal	-12129
▁Historical	-12130
▁attraction	-12131
oga	-12132
▁Lyn	-12133
stant	-12134
▁Agam	-12135
▁Bent	-12136
▁Kids	-12137
▁desp	-12138
▁obst	-12139
▁shed	-12140
teenth	-12141
▁2009.	-12142
▁Jamie	-12143
▁Newman	-12144
▁divers	-12145
▁Consider	-12146
▁bleeding	-12147
▁exciting	-12148
▁ancestors	-12149
▁preserved	-12150
▁celebration	-12151
:1	-12152
-78	-12153
ENT	-12154
pes	-12155
▁41	-12156
▁49	-12157
▁CA	-12158
agic	-12159
omal	-12160
type	-12161
▁Las	-12162
bohyd	-12163
stadt	-12164
▁fier	-12165
lights	-12166
orrect	-12167
▁dwarf	-12168
▁diagram	-12169
▁glucose	-12170
▁Hamilton	-12171
▁specialized	-12172
▁mathematical	-12173
cin	-12174
eem	-12175
han	-12176
ogs	-12177
Will	-12178
bial	-12179
play	-12180
wick	-12181
▁Pil	-12182
▁Tib	-12183
unity	-12184
▁Grim	-12185
▁glac	-12186
▁tear	-12187
▁swamp	-12188
atching	-12189
▁manual	-12190
▁scenes	-12191
▁Harvard	-12192
▁annually	-12193
▁coverage	-12194
▁objectives	-12195
▁respective	-12196
▁submission	-12197
cut	-12198
▁FF	-12199
ghan	-12200
vate	-12201
▁Mik	-12202
▁cig	-12203
copic	-12204
onsin	-12205
▁Kong	-12206
▁Move	-12207
▁Wong	-12208
▁melt	-12209
▁turb	-12210
▁2009,	-12211
▁inert	-12212
▁firing	-12213
▁pocket	-12214
▁purple	-12215
National	-12216
▁Foreign	-12217
▁precise	-12218
gregation	-12219
▁birthday	-12220
▁Mercenary	-12221
▁innovation	-12222
Co	-12223
Che	-12224
bes	-12225
cow	-12226
iry	-12227
▁(5	-12228
olid	-12229
ummy	-12230
▁Ego	-12231
▁NYPD	-12232
▁belt	-12233
vrolet	-12234
▁Radio	-12235
▁camps	-12236
▁shoes	-12237
▁button	-12238
▁impair	-12239
▁Article	-12240
▁breathe	-12241
▁mankind	-12242
▁torture	-12243
▁reflection	-12244
▁consequence	-12245
▁inspiration	-12246
0)	-12247
OT	-12248
aza	-12249
iza	-12250
oft	-12251
▁WW	-12252
Comp	-12253
hard	-12254
orde	-12255
vest	-12256
Angel	-12257
Flash	-12258
izers	-12259
ommod	-12260
ourge	-12261
▁1995	-12262
▁Prof	-12263
▁ensl	-12264
▁gray	-12265
▁seal	-12266
▁turt	-12267
erving	-12268
ingham	-12269
▁Randy	-12270
▁chron	-12271
▁curse	-12272
▁guest	-12273
▁limbs	-12274
▁resil	-12275
▁drinks	-12276
▁thieves	-12277
▁trading	-12278
▁Heritage	-12279
▁Strucker	-12280
▁founding	-12281
▁animation	-12282
▁consisted	-12283
▁varieties	-12284
▁vocabulary	-12285
▁destructive	-12286
▁Shapeshifting	-12287
DS	-12288
gon	-12289
▁(3	-12290
post	-12291
avern	-12292
▁Prim	-12293
▁auto	-12294
▁beds	-12295
▁loan	-12296
▁tape	-12297
▁Exodus	-12298
▁Element	-12299
▁Perhaps	-12300
▁Seattle	-12301
▁beating	-12302
▁prosper	-12303
overnment	-12304
▁continuity	-12305
▁vegetation	-12306
ema	-12307
-999	-12308
orne	-12309
osha	-12310
quis	-12311
▁EPA	-12312
▁odd	-12313
▁tag	-12314
imony	-12315
ioxid	-12316
▁Drug	-12317
▁Ivan	-12318
▁Note	-12319
▁mile	-12320
▁1953.	-12321
▁arsen	-12322
▁fraud	-12323
ictions	-12324
▁partly	-12325
▁subsid	-12326
isconsin	-12327
laration	-12328
▁Bennett	-12329
▁Maestro	-12330
▁cameras	-12331
▁imaging	-12332
▁entities	-12333
▁hardware	-12334
▁pointing	-12335
▁Jefferson	-12336
▁designated	-12337
▁developments	-12338
▁Map	-12339
▁Tam	-12340
andan	-12341
oline	-12342
▁Krig	-12343
▁Stew	-12344
amples	-12345
ortion	-12346
▁oblig	-12347
▁posed	-12348
▁Alison	-12349
▁Bagley	-12350
▁argues	-12351
▁clouds	-12352
▁duties	-12353
▁robbed	-12354
▁Eternal	-12355
▁Twitter	-12356
▁crossed	-12357
▁dietary	-12358
▁passion	-12359
▁thermal	-12360
▁Arriving	-12361
▁engaging	-12362
▁Hobgoblin	-12363
▁Universal	-12364
▁conquered	-12365
▁responded	-12366
▁stability	-12367
▁Physiology	-12368
▁Projection	-12369
▁resurrection	-12370
Ser	-12371
eep	-12372
▁184	-12373
grade	-12374
mines	-12375
▁Lost	-12376
Daniel	-12377
ometer	-12378
▁2011,	-12379
▁delay	-12380
▁overl	-12381
▁thumb	-12382
▁winds	-12383
▁overse	-12384
▁Android	-12385
▁Goliath	-12386
▁Leonard	-12387
▁conclus	-12388
▁declined	-12389
▁opinions	-12390
▁proclaim	-12391
▁Krigstein	-12392
▁absolutely	-12393
▁exhibition	-12394
▁respiratory	-12395
▁participating	-12396
Ms	-12397
Ass	-12398
Book	-12399
door	-12400
▁Cow	-12401
ortex	-12402
proof	-12403
▁iter	-12404
venant	-12405
▁2005,	-12406
▁sheep	-12407
January	-12408
▁Humans	-12409
▁deemed	-12410
▁colonial	-12411
▁Hollywood	-12412
▁attending	-12413
▁considers	-12414
▁perfectly	-12415
▁differently	-12416
▁susceptible	-12417
▁availability	-12418
▁manufacturers	-12419
74	-12420
-58	-12421
ili	-12422
bury	-12423
omon	-12424
▁600	-12425
cycle	-12426
orton	-12427
▁Hyde	-12428
▁hell	-12429
▁prol	-12430
strong	-12431
▁Bryan	-12432
▁Slade	-12433
▁grief	-12434
▁Gamble	-12435
▁myself	-12436
▁refuse	-12437
▁thwart	-12438
▁Jenkins	-12439
▁disband	-12440
▁dispers	-12441
▁placing	-12442
mentation	-12443
▁judgment	-12444
▁weakened	-12445
▁instances	-12446
▁mortality	-12447
▁popularity	-12448
▁Agriculture	-12449
94	-12450
alth	-12451
inch	-12452
this	-12453
▁Mit	-12454
▁toy	-12455
▁Find	-12456
▁Lead	-12457
▁grey	-12458
▁perf	-12459
ogenic	-12460
▁traps	-12461
▁Duggan	-12462
▁lethal	-12463
isticated	-12464
▁Computer	-12465
▁lifetime	-12466
▁outbreak	-12467
▁planting	-12468
▁proposal	-12469
▁Minnesota	-12470
▁residence	-12471
▁discipline	-12472
▁achievement	-12473
▁mac	-12474
Civil	-12475
anded	-12476
▁Allan	-12477
▁Octav	-12478
▁Tigra	-12479
▁Ultra	-12480
Despite	-12481
▁Safety	-12482
▁Sentry	-12483
▁bursts	-12484
▁metaph	-12485
▁valley	-12486
▁Runaways	-12487
▁classical	-12488
▁Afterwards	-12489
▁descendants	-12490
▁requirement	-12491
▁Yellowjacket	-12492
▁biodiversity	-12493
.]	-12494
Ge	-12495
mm	-12496
Rel	-12497
ido	-12498
omo	-12499
icut	-12500
▁Gus	-12501
▁Liz	-12502
▁Spe	-12503
geant	-12504
print	-12505
▁Beta	-12506
▁Pell	-12507
▁Rose	-12508
▁Surv	-12509
ologic	-12510
▁likes	-12511
▁Irving	-12512
▁Jordan	-12513
▁Mystic	-12514
▁campus	-12515
▁invade	-12516
▁tosses	-12517
stration	-12518
▁Louisiana	-12519
▁Wikipedia	-12520
▁offspring	-12521
▁submarine	-12522
▁boundaries	-12523
▁investigated	-12524
afe	-12525
ali	-12526
phy	-12527
pos	-12528
▁Aur	-12529
about	-12530
ontal	-12531
▁Chad	-12532
▁whale	-12533
agonist	-12534
assador	-12535
eteenth	-12536
▁Circus	-12537
▁Daimon	-12538
▁Within	-12539
▁divine	-12540
▁Martian	-12541
▁Windows	-12542
▁Beyonder	-12543
▁accommod	-12544
▁duration	-12545
▁refugees	-12546
▁detective	-12547
▁wonderful	-12548
▁discussing	-12549
▁Grandmaster	-12550
Cr	-12551
fr	-12552
Writ	-12553
blem	-12554
igma	-12555
kiel	-12556
ollo	-12557
▁Fat	-12558
▁pel	-12559
▁Hama	-12560
▁Horn	-12561
eworld	-12562
▁clust	-12563
▁spite	-12564
lectric	-12565
osexual	-12566
▁analys	-12567
▁catast	-12568
▁jurisd	-12569
▁prosec	-12570
▁wished	-12571
▁Krakoan	-12572
▁colored	-12573
▁courage	-12574
▁enzymes	-12575
▁furious	-12576
▁pursued	-12577
Continued	-12578
▁quantity	-12579
▁Detective	-12580
▁processed	-12581
▁warehouse	-12582
▁disability	-12583
▁regulation	-12584
-60	-12585
dig	-12586
▁Nan	-12587
▁cub	-12588
atial	-12589
borne	-12590
sized	-12591
▁Fren	-12592
▁Mong	-12593
▁genu	-12594
▁gren	-12595
loaded	-12596
▁2008,	-12597
▁Cliff	-12598
▁Janet	-12599
▁Marrs	-12600
▁Vault	-12601
feeding	-12602
▁10,000	-12603
▁burden	-12604
▁recall	-12605
▁vacuum	-12606
▁Zealand	-12607
▁seasons	-12608
▁Assembly	-12609
▁announce	-12610
▁inherent	-12611
▁printing	-12612
identified	-12613
▁measuring	-12614
▁satisfact	-12615
▁cooperation	-12616
%)	-12617
Hel	-12618
pdf	-12619
yll	-12620
Pres	-12621
atus	-12622
phal	-12623
spot	-12624
vine	-12625
igher	-12626
isons	-12627
▁Kwes	-12628
▁hook	-12629
▁toes	-12630
antern	-12631
cisely	-12632
icipal	-12633
raphic	-12634
▁juice	-12635
▁pairs	-12636
ometric	-12637
▁blamed	-12638
▁favour	-12639
▁finest	-12640
▁assumes	-12641
▁explodes	-12642
▁hypothesis	-12643
▁infiltrate	-12644
▁DD	-12645
even	-12646
ourer	-12647
▁Core	-12648
▁Pain	-12649
▁Pere	-12650
▁Tree	-12651
▁solo	-12652
▁verb	-12653
▁reapp	-12654
▁rifle	-12655
▁smell	-12656
▁Rather	-12657
▁traged	-12658
▁Kweskin	-12659
▁anthrop	-12660
▁mentions	-12661
▁retained	-12662
▁attackers	-12663
▁expanding	-12664
▁relatives	-12665
▁advantages	-12666
▁demonstrates	-12667
▁corresponding	-12668
68	-12669
Cop	-12670
sky	-12671
arty	-12672
asar	-12673
good	-12674
ondu	-12675
Peter	-12676
ogram	-12677
▁2023	-12678
▁Dahl	-12679
▁Kull	-12680
▁Utop	-12681
▁Snake	-12682
▁admit	-12683
▁honey	-12684
▁nodes	-12685
▁sperm	-12686
▁Factor	-12687
▁Object	-12688
▁condem	-12689
▁honest	-12690
▁volunt	-12691
▁lateral	-12692
▁asteroid	-12693
▁conquest	-12694
▁electrons	-12695
▁partition	-12696
▁pressures	-12697
▁specially	-12698
▁vengeance	-12699
▁psychology	-12700
▁determining	-12701
▁simultaneously	-12702
nut	-12703
▁(“	-12704
-930	-12705
oints	-12706
rimin	-12707
▁Ster	-12708
▁Tenn	-12709
▁loud	-12710
▁2013.	-12711
▁Hindu	-12712
▁doses	-12713
▁logic	-12714
▁recur	-12715
iatives	-12716
▁convey	-12717
▁oceans	-12718
▁talked	-12719
▁variant	-12720
▁Michelin	-12721
▁allergic	-12722
▁equation	-12723
▁presumed	-12724
iovascular	-12725
▁Gustavson	-12726
▁discussions	-12727
▁restoration	-12728
73	-12729
Lun	-12730
awl	-12731
eda	-12732
▁Bh	-12733
▁Cz	-12734
Also	-12735
Conn	-12736
aran	-12737
▁160	-12738
▁Haz	-12739
▁Yes	-12740
▁jaw	-12741
aters	-12742
rones	-12743
▁Turk	-12744
▁Wave	-12745
▁Whiz	-12746
agraph	-12747
ailing	-12748
estone	-12749
uating	-12750
▁1952.	-12751
▁Wales	-12752
▁Wells	-12753
▁alike	-12754
▁cough	-12755
▁inver	-12756
▁penet	-12757
hensile	-12758
▁Policy	-12759
▁Toomes	-12760
▁Walton	-12761
▁checks	-12762
▁grains	-12763
▁Vitamin	-12764
▁allergy	-12765
▁tremend	-12766
▁floating	-12767
▁minority	-12768
▁realities	-12769
▁everywhere	-12770
▁grandfather	-12771
▁compensation	-12772
52	-12773
54	-12774
UC	-12775
uming	-12776
owered	-12777
▁Might	-12778
▁dense	-12779
▁erupt	-12780
imation	-12781
isphere	-12782
▁Brogan	-12783
▁Medina	-12784
▁chains	-12785
specific	-12786
▁notable	-12787
▁symbols	-12788
▁Sparling	-12789
▁imprison	-12790
▁Wisconsin	-12791
▁candidates	-12792
▁describing	-12793
▁pesticides	-12794
▁transmitted	-12795
EA	-12796
Big	-12797
Ter	-12798
owa	-12799
▁NC	-12800
avan	-12801
high	-12802
hire	-12803
unct	-12804
▁183	-12805
▁Dox	-12806
▁Ian	-12807
▁Mig	-12808
▁Gage	-12809
▁extr	-12810
▁toys	-12811
akespe	-12812
rinted	-12813
▁2008.	-12814
▁Place	-12815
▁width	-12816
Carnage	-12817
▁Andrea	-12818
▁dollar	-12819
▁patent	-12820
▁treaty	-12821
outheast	-12822
▁dressed	-12823
▁hanging	-12824
▁jealous	-12825
▁minimal	-12826
▁mounted	-12827
▁Bloodstone	-12828
▁metabolism	-12829
▁variations	-12830
▁distinction	-12831
NS	-12832
dep	-12833
iri	-12834
Each	-12835
hamm	-12836
obin	-12837
▁Ara	-12838
▁Nap	-12839
▁lun	-12840
▁Maur	-12841
▁biom	-12842
Secret	-12843
▁Learn	-12844
▁Quant	-12845
▁fatty	-12846
▁gifts	-12847
▁guilt	-12848
▁mayor	-12849
▁filter	-12850
▁pistol	-12851
▁posted	-12852
▁ignored	-12853
▁infants	-12854
▁welcome	-12855
conscious	-12856
▁Animated	-12857
▁occasions	-12858
▁promoting	-12859
▁Michelinie	-12860
▁irrigation	-12861
▁struggling	-12862
▁incorporated	-12863
▁classification	-12864
nb	-12865
ía	-12866
jud	-12867
icer	-12868
omex	-12869
rill	-12870
tech	-12871
urai	-12872
user	-12873
▁FDA	-12874
▁Pit	-12875
names	-12876
ocity	-12877
ostic	-12878
Source	-12879
author	-12880
▁Stock	-12881
▁arise	-12882
▁clues	-12883
Donnell	-12884
▁Reaper	-12885
▁propag	-12886
▁Various	-12887
▁crashes	-12888
▁defects	-12889
▁discour	-12890
akespeare	-12891
▁electrom	-12892
▁profound	-12893
▁arguments	-12894
▁sustained	-12895
62	-12896
FF	-12897
ibb	-12898
▁MA	-12899
Post	-12900
imen	-12901
Video	-12902
inely	-12903
▁Conc	-12904
▁Fern	-12905
▁cord	-12906
▁hate	-12907
Before	-12908
omorph	-12909
▁Trust	-12910
▁patch	-12911
▁weigh	-12912
regular	-12913
▁loaded	-12914
▁transf	-12915
▁Affairs	-12916
▁Mercury	-12917
▁borders	-12918
▁Enhanced	-12919
▁Physical	-12920
▁captures	-12921
▁contacts	-12922
▁equality	-12923
▁publicly	-12924
▁siblings	-12925
▁societies	-12926
▁physiology	-12927
▁Connecticut	-12928
oric	-12929
▁Spy	-12930
▁Wed	-12931
▁nam	-12932
anium	-12933
arked	-12934
enzie	-12935
habil	-12936
▁dish	-12937
▁forb	-12938
▁wolf	-12939
▁Pardo	-12940
▁boats	-12941
▁bunch	-12942
▁cream	-12943
▁suits	-12944
mentary	-12945
▁inters	-12946
function	-12947
▁Colleen	-12948
▁Digital	-12949
▁optical	-12950
▁Governor	-12951
▁squirrel	-12952
▁continent	-12953
▁philosoph	-12954
▁synthetic	-12955
▁definitely	-12956
▁practition	-12957
▁limitations	-12958
▁Professional	-12959
-83	-12960
.||	-12961
pack	-12962
▁Fun	-12963
▁joy	-12964
gener	-12965
▁desk	-12966
▁idol	-12967
▁tick	-12968
Mighty	-12969
ustain	-12970
▁Forces	-12971
▁bodily	-12972
▁hatred	-12973
▁Goddess	-12974
▁Heather	-12975
▁ensuing	-12976
▁excited	-12977
▁immense	-12978
▁adjacent	-12979
▁choosing	-12980
▁ensuring	-12981
▁humidity	-12982
▁pleasure	-12983
▁rendered	-12984
▁sessions	-12985
▁Elsewhere	-12986
▁machinery	-12987
▁poisoning	-12988
▁scheduled	-12989
▁Psychology	-12990
▁facilitate	-12991
▁imagination	-12992
bus	-12993
edu	-12994
var	-12995
Carl	-12996
earl	-12997
▁Ras	-12998
axies	-12999
icist	-13000
▁Eden	-13001
▁Hend	-13002
▁Walt	-13003
Battle	-13004
assing	-13005
forest	-13006
▁Delta	-13007
▁Virus	-13008
▁urine	-13009
▁authen	-13010
▁revive	-13011
▁exhaust	-13012
▁Economic	-13013
▁Presents	-13014
▁injected	-13015
▁schedule	-13016
▁Pellowski	-13017
▁disintegr	-13018
▁engagement	-13019
▁distinguish	-13020
▁orientation	-13021
▁sophisticated	-13022
,'	-13023
ni	-13024
Sim	-13025
▁Ru	-13026
-219	-13027
Mult	-13028
Then	-13029
held	-13030
mons	-13031
ivals	-13032
▁hist	-13033
▁drove	-13034
▁noble	-13035
▁sanct	-13036
▁sneak	-13037
illance	-13038
▁Beetle	-13039
▁Diablo	-13040
▁hunger	-13041
▁Maximus	-13042
▁carbohyd	-13043
▁fraction	-13044
▁missiles	-13045
▁railroad	-13046
▁conflicts	-13047
▁predicted	-13048
▁triggered	-13049
▁originated	-13050
▁comfortable	-13051
▁extraordinary	-13052
eer	-13053
icz	-13054
nee	-13055
▁VI	-13056
▁ty	-13057
Spec	-13058
ulus	-13059
▁avo	-13060
▁Hong	-13061
▁Marz	-13062
▁deck	-13063
headed	-13064
health	-13065
▁Incre	-13066
▁Janson	-13067
▁Reborn	-13068
▁Warner	-13069
▁plasma	-13070
▁suspic	-13071
▁Cerebro	-13072
▁circles	-13073
▁liberal	-13074
▁recruits	-13075
▁Marauders	-13076
▁explosive	-13077
▁publishing	-13078
▁dramatically	-13079
Ag	-13080
▁AI	-13081
▁BM	-13082
▁ca	-13083
onso	-13084
stri	-13085
▁Pas	-13086
▁1997	-13087
▁Burn	-13088
▁Left	-13089
▁Salv	-13090
▁Size	-13091
▁Creel	-13092
▁Feder	-13093
▁crack	-13094
▁dairy	-13095
▁fifty	-13096
▁rooms	-13097
▁uncon	-13098
▁Chamber	-13099
▁compass	-13100
▁resolve	-13101
Daredevil	-13102
▁Clinical	-13103
▁shipping	-13104
▁afterward	-13105
▁allergies	-13106
▁Moondragon	-13107
▁households	-13108
▁influences	-13109
▁Authorities	-13110
Sm	-13111
eg	-13112
Emma	-13113
View	-13114
cked	-13115
rous	-13116
Inter	-13117
rocod	-13118
▁1994	-13119
▁Diet	-13120
▁Irma	-13121
▁folk	-13122
▁vibr	-13123
uality	-13124
▁Galan	-13125
▁Lucas	-13126
▁Wyatt	-13127
▁melan	-13128
▁twent	-13129
▁wider	-13130
etermin	-13131
ivities	-13132
uscript	-13133
▁Figure	-13134
▁barrel	-13135
▁stones	-13136
▁Whizzer	-13137
▁avoided	-13138
▁gardens	-13139
sequently	-13140
▁literacy	-13141
▁medieval	-13142
▁surgical	-13143
▁unstable	-13144
▁weaponry	-13145
▁prehensile	-13146
OK	-13147
OM	-13148
▁#4	-13149
▁51	-13150
▁Tu	-13151
elin	-13152
▁Kob	-13153
▁Sem	-13154
▁gig	-13155
Charl	-13156
uncle	-13157
▁Chip	-13158
▁Half	-13159
▁Hire	-13160
Skrull	-13161
igible	-13162
▁Level	-13163
▁elite	-13164
▁hills	-13165
▁Herman	-13166
▁lesser	-13167
▁masked	-13168
ribution	-13169
▁Reality	-13170
▁applies	-13171
▁chances	-13172
▁mercury	-13173
▁reflexes	-13174
▁Artificial	-13175
▁separation	-13176
▁integration	-13177
)|	-13178
Gun	-13179
nan	-13180
atre	-13181
orrh	-13182
tebr	-13183
▁Fif	-13184
allas	-13185
cence	-13186
▁Ches	-13187
▁Mend	-13188
▁adul	-13189
▁irre	-13190
▁misc	-13191
▁scan	-13192
▁wise	-13193
▁Chand	-13194
▁Horse	-13195
▁Medic	-13196
▁Percy	-13197
▁brows	-13198
▁jewel	-13199
▁obser	-13200
▁wagon	-13201
▁Poison	-13202
▁Return	-13203
▁Vernon	-13204
▁assets	-13205
▁config	-13206
▁unders	-13207
▁Cameron	-13208
▁Spencer	-13209
▁closest	-13210
▁feather	-13211
▁robbing	-13212
▁thyroid	-13213
▁applying	-13214
▁churches	-13215
▁educators	-13216
▁similarly	-13217
▁thereafter	-13218
▁sensitivity	-13219
69	-13220
Eng	-13221
-110	-13222
anko	-13223
issa	-13224
▁ech	-13225
algam	-13226
aunch	-13227
iking	-13228
ocate	-13229
▁Drew	-13230
▁loop	-13231
ructor	-13232
strous	-13233
▁Hills	-13234
▁enact	-13235
▁orche	-13236
Unknown	-13237
▁Hallow	-13238
▁Others	-13239
▁varied	-13240
original	-13241
speaking	-13242
▁Working	-13243
▁critics	-13244
▁eternal	-13245
▁fighters	-13246
▁genetics	-13247
▁seasonal	-13248
▁duplicate	-13249
▁hospitals	-13250
▁interfere	-13251
▁kilometers	-13252
▁specialist	-13253
▁manipulation	-13254
Bo	-13255
40)	-13256
far	-13257
vich	-13258
▁Amb	-13259
▁PhD	-13260
burgh	-13261
odiac	-13262
▁Balt	-13263
▁Dyne	-13264
▁Hung	-13265
▁Ones	-13266
▁Synd	-13267
▁Zeus	-13268
▁bell	-13269
▁bulk	-13270
▁gast	-13271
▁gear	-13272
orient	-13273
person	-13274
▁affil	-13275
▁arbit	-13276
olition	-13277
redibly	-13278
▁Harlem	-13279
▁ambush	-13280
▁gifted	-13281
▁gotten	-13282
▁themes	-13283
▁weekly	-13284
▁Physics	-13285
▁debuted	-13286
▁Firestar	-13287
▁approval	-13288
▁rational	-13289
▁impressive	-13290
▁measurement	-13291
urd	-13292
▁64	-13293
▁Ul	-13294
...;	-13295
▁Pin	-13296
Using	-13297
▁Date	-13298
▁Rain	-13299
▁1954.	-13300
▁2007.	-13301
▁Kraft	-13302
▁Laser	-13303
▁tends	-13304
▁Sanders	-13305
▁flaming	-13306
▁lecture	-13307
▁stretch	-13308
▁varying	-13309
▁imperial	-13310
▁teammate	-13311
▁terrible	-13312
▁illnesses	-13313
▁requested	-13314
▁remembered	-13315
▁determination	-13316
2-	-13317
SI	-13318
).;	-13319
1),	-13320
Any	-13321
vity	-13322
▁250	-13323
▁2022	-13324
▁Pepe	-13325
▁node	-13326
incing	-13327
irable	-13328
▁Griff	-13329
▁alleg	-13330
▁bills	-13331
▁deals	-13332
▁retal	-13333
reement	-13334
▁feared	-13335
▁cluster	-13336
▁instant	-13337
▁notably	-13338
▁Springer	-13339
▁Wrecking	-13340
▁meetings	-13341
▁Represent	-13342
▁resembles	-13343
▁Revelation	-13344
▁cybernetic	-13345
▁intentions	-13346
!!	-13347
-50	-13348
Cent	-13349
atin	-13350
▁800	-13351
▁Inn	-13352
grand	-13353
overs	-13354
reens	-13355
▁Brent	-13356
▁Crane	-13357
▁Reese	-13358
▁angel	-13359
▁wakes	-13360
▁zones	-13361
▁admits	-13362
▁apolog	-13363
▁genome	-13364
velength	-13365
▁Healing	-13366
▁Liberty	-13367
▁awarded	-13368
▁damages	-13369
▁graphic	-13370
▁hostile	-13371
▁murders	-13372
▁readily	-13373
▁regener	-13374
▁Olympian	-13375
▁distress	-13376
▁Mojoverse	-13377
▁Whirlwind	-13378
▁conversion	-13379
▁restricted	-13380
▁evolutionary	-13381
20)	-13382
neg	-13383
orc	-13384
▁mg	-13385
adia	-13386
▁Pup	-13387
▁ric	-13388
fight	-13389
found	-13390
scrib	-13391
taine	-13392
▁emit	-13393
▁quit	-13394
berger	-13395
hedral	-13396
itched	-13397
ursday	-13398
▁Dicky	-13399
▁Trail	-13400
▁crust	-13401
▁mount	-13402
▁stems	-13403
▁fibers	-13404
▁module	-13405
▁tricks	-13406
▁Whether	-13407
▁analyze	-13408
▁anymore	-13409
▁extends	-13410
▁suspects	-13411
▁Executive	-13412
▁addresses	-13413
▁proceeded	-13414
▁reasoning	-13415
▁recovering	-13416
▁Annihilation	-13417
▁reproductive	-13418
▁possibilities	-13419
▁sustainability	-13420
.:	-13421
igl	-13422
sis	-13423
▁MI	-13424
-511	-13425
adin	-13426
anas	-13427
gart	-13428
irie	-13429
▁Deb	-13430
▁esc	-13431
▁sel	-13432
luded	-13433
omers	-13434
▁Pope	-13435
▁Saga	-13436
▁bite	-13437
▁unto	-13438
▁corps	-13439
▁dated	-13440
▁pries	-13441
▁spare	-13442
▁spray	-13443
▁utter	-13444
▁Harper	-13445
▁Legacy	-13446
▁casual	-13447
▁grades	-13448
▁scores	-13449
▁studio	-13450
▁subdue	-13451
▁masters	-13452
▁Communist	-13453
▁obviously	-13454
▁tentacles	-13455
▁watershed	-13456
▁Hammerhead	-13457
▁documented	-13458
▁influential	-13459
▁concentrated	-13460
▁supernatural	-13461
unc	-13462
▁Yu	-13463
▁ha	-13464
bast	-13465
game	-13466
lasm	-13467
only	-13468
oult	-13469
seud	-13470
▁Chi	-13471
▁Sep	-13472
Power	-13473
▁disg	-13474
▁sizes	-13475
▁stamp	-13476
▁tomat	-13477
▁Conrad	-13478
▁Thanks	-13479
▁farmer	-13480
▁freely	-13481
▁strang	-13482
▁styles	-13483
▁Nuclear	-13484
▁persona	-13485
▁Remember	-13486
▁deciding	-13487
▁immunity	-13488
▁plotting	-13489
Scientists	-13490
▁bacterial	-13491
▁strategic	-13492
▁attributed	-13493
▁coordinate	-13494
▁transplant	-13495
▁controversial	-13496
dr	-13497
ELD	-13498
Int	-13499
sub	-13500
zes	-13501
Bull	-13502
acco	-13503
alan	-13504
fits	-13505
Click	-13506
asser	-13507
graph	-13508
▁Cape	-13509
▁Educ	-13510
▁Saka	-13511
▁coma	-13512
venile	-13513
▁Often	-13514
▁dealt	-13515
▁guess	-13516
▁loves	-13517
▁overt	-13518
▁Bullet	-13519
▁Howett	-13520
▁blades	-13521
▁prayer	-13522
▁rebels	-13523
▁sealed	-13524
▁tribal	-13525
▁Genosha	-13526
▁combine	-13527
▁Christos	-13528
▁Galactic	-13529
▁Training	-13530
▁contrary	-13531
▁vitamins	-13532
▁daughters	-13533
▁Indigenous	-13534
▁containers	-13535
▁sacrifices	-13536
▁Shakespeare	-13537
▁Westchester	-13538
▁destination	-13539
3),	-13540
His	-13541
igm	-13542
▁Py	-13543
azor	-13544
itic	-13545
▁Ace	-13546
▁Oak	-13547
▁dil	-13548
dated	-13549
yrich	-13550
▁Hamm	-13551
▁pond	-13552
aments	-13553
antium	-13554
▁Arnim	-13555
▁Magik	-13556
▁artic	-13557
▁burns	-13558
▁climb	-13559
▁dried	-13560
▁ineff	-13561
▁Powers	-13562
▁boards	-13563
▁elabor	-13564
▁Jubilee	-13565
▁Sumerak	-13566
▁winning	-13567
▁counties	-13568
▁organism	-13569
▁reviewed	-13570
▁tendency	-13571
▁Chevrolet	-13572
▁referring	-13573
▁therapies	-13574
▁villagers	-13575
▁indicating	-13576
▁travelling	-13577
▁installation	-13578
Sup	-13579
you	-13580
▁9.	-13581
acht	-13582
▁Fil	-13583
▁GDP	-13584
▁LMD	-13585
▁guy	-13586
▁sul	-13587
bound	-13588
▁Aron	-13589
▁Java	-13590
▁Tech	-13591
▁bind	-13592
▁deer	-13593
▁sink	-13594
▁tech	-13595
Combat	-13596
▁Dooms	-13597
▁rhythm	-13598
▁varies	-13599
ibranium	-13600
▁Titanic	-13601
▁kitchen	-13602
▁lasting	-13603
▁reactor	-13604
▁shorter	-13605
▁staying	-13606
istically	-13607
▁Pakistan	-13608
▁Werewolf	-13609
▁assembly	-13610
▁elephant	-13611
▁upcoming	-13612
ockingbird	-13613
▁neighbors	-13614
▁precisely	-13615
▁prolonged	-13616
▁releasing	-13617
▁submitted	-13618
▁telepathy	-13619
▁democratic	-13620
▁prescribed	-13621
▁antibiotics	-13622
▁theoretical	-13623
BM	-13624
Os	-13625
Are	-13626
pre	-13627
▁UV	-13628
rary	-13629
wave	-13630
agons	-13631
arlic	-13632
birth	-13633
comed	-13634
wartz	-13635
▁Cock	-13636
▁Crow	-13637
▁Gate	-13638
▁Unit	-13639
▁bars	-13640
▁herb	-13641
▁hier	-13642
everly	-13643
wealth	-13644
▁Athen	-13645
▁Syria	-13646
▁eager	-13647
▁distur	-13648
________	-13649
▁drivers	-13650
▁Moonstar	-13651
▁barriers	-13652
▁flooding	-13653
▁predomin	-13654
▁combatant	-13655
▁impressed	-13656
▁fascinating	-13657
▁initiatives	-13658
▁Teleportation	-13659
".;	-13660
6),	-13661
Act	-13662
asa	-13663
eur	-13664
uria	-13665
▁Cyp	-13666
▁Jed	-13667
ewise	-13668
roids	-13669
▁Hive	-13670
▁Lego	-13671
▁Utah	-13672
▁inch	-13673
advert	-13674
▁Clone	-13675
▁wiped	-13676
▁Allied	-13677
▁divide	-13678
▁phones	-13679
▁relate	-13680
▁salmon	-13681
▁tumors	-13682
ognition	-13683
▁Fontaine	-13684
▁answered	-13685
▁asbestos	-13686
▁crossing	-13687
▁explored	-13688
▁operates	-13689
▁corporate	-13690
▁desperate	-13691
▁acceptable	-13692
▁incredibly	-13693
▁infiltrated	-13694
▁overpowered	-13695
uces	-13696
▁Aug	-13697
-5816	-13698
aurus	-13699
ndash	-13700
ranes	-13701
▁reef	-13702
▁stew	-13703
▁Misty	-13704
▁Staff	-13705
▁morph	-13706
▁Miguel	-13707
▁Number	-13708
▁incent	-13709
▁thread	-13710
▁Destiny	-13711
▁revives	-13712
▁Heimdall	-13713
▁antioxid	-13714
▁football	-13715
▁mistakes	-13716
▁relating	-13717
▁subjected	-13718
Researchers	-13719
%,	-13720
Boy	-13721
irk	-13722
obu	-13723
▁85	-13724
opes	-13725
rose	-13726
they	-13727
uras	-13728
▁gym	-13729
▁comr	-13730
▁marg	-13731
former	-13732
▁Garth	-13733
▁assim	-13734
▁harsh	-13735
atories	-13736
▁Damage	-13737
▁edited	-13738
▁Madison	-13739
▁contrad	-13740
▁imprint	-13741
▁segment	-13742
▁Octavius	-13743
▁disposal	-13744
▁educated	-13745
▁websites	-13746
▁absorbing	-13747
▁operative	-13748
▁requiring	-13749
▁devastating	-13750
79	-13751
aft	-13752
agh	-13753
oog	-13754
▁Ga	-13755
copy	-13756
ibal	-13757
obic	-13758
urge	-13759
▁Hug	-13760
▁tap	-13761
amous	-13762
avior	-13763
books	-13764
ospel	-13765
▁Bene	-13766
▁pant	-13767
▁wash	-13768
lining	-13769
rafted	-13770
▁2006.	-13771
▁Dread	-13772
▁Priest	-13773
▁regain	-13774
▁sodium	-13775
▁Mission	-13776
▁Shooter	-13777
▁bearing	-13778
▁pulling	-13779
▁subdued	-13780
▁artistic	-13781
▁banished	-13782
▁servants	-13783
▁Treatment	-13784
▁paintings	-13785
▁generating	-13786
▁wavelength	-13787
▁Astonishing	-13788
▁statistical	-13789
OC	-13790
zi	-13791
▁AC	-13792
Tele	-13793
bles	-13794
pton	-13795
risk	-13796
▁Zal	-13797
ounce	-13798
plane	-13799
rowth	-13800
▁Vers	-13801
▁rent	-13802
nesday	-13803
▁Geoff	-13804
▁Given	-13805
▁parks	-13806
endment	-13807
▁Afghan	-13808
▁Desert	-13809
▁Jungle	-13810
▁Nevada	-13811
▁Python	-13812
▁absent	-13813
▁intact	-13814
▁outfit	-13815
▁Frances	-13816
▁grabbed	-13817
▁overview	-13818
▁producer	-13819
▁skeleton	-13820
▁accompany	-13821
▁scattered	-13822
▁historians	-13823
▁coordination	-13824
▁demonstration	-13825
UL	-13826
▁•	-13827
▁da	-13828
▁dy	-13829
indy	-13830
nbsp	-13831
pace	-13832
▁ate	-13833
▁Apes	-13834
▁Cert	-13835
▁Myth	-13836
▁harn	-13837
▁tang	-13838
▁wipe	-13839
▁Cloud	-13840
▁Lower	-13841
▁deity	-13842
▁milit	-13843
▁shade	-13844
▁teens	-13845
fulness	-13846
▁Kubert	-13847
▁Therap	-13848
▁hardly	-13849
▁hunted	-13850
▁sorcer	-13851
▁Process	-13852
▁dispute	-13853
▁faculty	-13854
alination	-13855
▁calendar	-13856
▁tutorial	-13857
▁provisions	-13858
▁surprising	-13859
▁earthquakes	-13860
PR	-13861
ho	-13862
.),	-13863
abe	-13864
bul	-13865
pen	-13866
▁GH	-13867
▁Lt	-13868
▁SA	-13869
oker	-13870
onal	-13871
▁Viv	-13872
▁mol	-13873
imity	-13874
▁Mace	-13875
▁Nine	-13876
▁Trad	-13877
▁encl	-13878
▁panc	-13879
▁Sarah	-13880
▁badly	-13881
▁cloth	-13882
▁kings	-13883
▁pitch	-13884
reshold	-13885
▁Guards	-13886
▁Malays	-13887
▁asleep	-13888
▁oppose	-13889
▁Marylyn	-13890
▁Stewart	-13891
▁electro	-13892
▁empower	-13893
▁Archives	-13894
▁Changing	-13895
▁Morlocks	-13896
▁inferior	-13897
▁payments	-13898
▁editorial	-13899
▁libraries	-13900
▁spaceship	-13901
▁Industrial	-13902
▁Regeneration	-13903
kh	-13904
-29	-13905
oir	-13906
ups	-13907
▁52	-13908
▁Hu	-13909
▁TO	-13910
dale	-13911
eans	-13912
ptom	-13913
thod	-13914
▁Ana	-13915
first	-13916
ideon	-13917
▁Holl	-13918
▁Lenn	-13919
▁Name	-13920
▁atom	-13921
▁frog	-13922
▁hire	-13923
histor	-13924
olitan	-13925
ouring	-13926
▁Tokyo	-13927
[...]
